{
  "version": "1.0",
  "truncation": null,
  "padding": null,
  "added_tokens": [
    {
      "id": 0,
      "content": "[PAD]",
      "single_word": false,
      "lstrip": false,
      "rstrip": false,
      "normalized": false,
      "special": true
    },
    {
      "id": 1,
      "content": "[SOS]",
      "single_word": false,
      "lstrip": false,
      "rstrip": false,
      "normalized": false,
      "special": true
    },
    {
      "id": 2,
      "content": "[EOS]",
      "single_word": false,
      "lstrip": false,
      "rstrip": false,
      "normalized": false,
      "special": true
    },
    {
      "id": 3,
      "content": "[UNK]",
      "single_word": false,
      "lstrip": false,
      "rstrip": false,
      "normalized": false,
      "special": true
    }
  ],
  "normalizer": null,
  "pre_tokenizer": {
    "type": "Whitespace"
  },
  "post_processor": {
    "type": "TemplateProcessing",
    "single": [
      {
        "SpecialToken": {
          "id": "[SOS]",
          "type_id": 0
        }
      },
      {
        "Sequence": {
          "id": "A",
          "type_id": 0
        }
      },
      {
        "SpecialToken": {
          "id": "[EOS]",
          "type_id": 0
        }
      }
    ],
    "pair": [
      {
        "Sequence": {
          "id": "A",
          "type_id": 0
        }
      },
      {
        "Sequence": {
          "id": "B",
          "type_id": 1
        }
      }
    ],
    "special_tokens": {
      "[EOS]": {
        "id": "[EOS]",
        "ids": [
          2
        ],
        "tokens": [
          "[EOS]"
        ]
      },
      "[SOS]": {
        "id": "[SOS]",
        "ids": [
          1
        ],
        "tokens": [
          "[SOS]"
        ]
      }
    }
  },
  "decoder": null,
  "model": {
    "type": "BPE",
    "dropout": null,
    "unk_token": "[UNK]",
    "continuing_subword_prefix": null,
    "end_of_word_suffix": null,
    "fuse_unk": false,
    "vocab": {
      "[PAD]": 0,
      "[SOS]": 1,
      "[EOS]": 2,
      "[UNK]": 3,
      "!": 4,
      "\"": 5,
      "$": 6,
      "%": 7,
      "&": 8,
      "'": 9,
      "(": 10,
      ")": 11,
      "+": 12,
      ",": 13,
      "-": 14,
      ".": 15,
      "0": 16,
      "1": 17,
      "2": 18,
      "3": 19,
      "4": 20,
      "5": 21,
      "6": 22,
      "7": 23,
      "8": 24,
      "9": 25,
      ":": 26,
      ";": 27,
      "<": 28,
      "=": 29,
      "?": 30,
      "@": 31,
      "A": 32,
      "B": 33,
      "C": 34,
      "D": 35,
      "E": 36,
      "F": 37,
      "G": 38,
      "H": 39,
      "I": 40,
      "J": 41,
      "K": 42,
      "L": 43,
      "M": 44,
      "N": 45,
      "O": 46,
      "P": 47,
      "Q": 48,
      "R": 49,
      "S": 50,
      "T": 51,
      "U": 52,
      "V": 53,
      "W": 54,
      "X": 55,
      "Y": 56,
      "Z": 57,
      "`": 58,
      "a": 59,
      "b": 60,
      "c": 61,
      "d": 62,
      "e": 63,
      "f": 64,
      "g": 65,
      "h": 66,
      "i": 67,
      "j": 68,
      "k": 69,
      "l": 70,
      "m": 71,
      "n": 72,
      "o": 73,
      "p": 74,
      "q": 75,
      "r": 76,
      "s": 77,
      "t": 78,
      "u": 79,
      "v": 80,
      "w": 81,
      "x": 82,
      "y": 83,
      "z": 84,
      "ä": 85,
      "’": 86,
      "”": 87,
      "in": 88,
      "an": 89,
      "ing": 90,
      "th": 91,
      "er": 92,
      "re": 93,
      "on": 94,
      "le": 95,
      "hi": 96,
      "ar": 97,
      "and": 98,
      "the": 99,
      "man": 100,
      "ou": 101,
      "at": 102,
      "st": 103,
      "wo": 104,
      "al": 105,
      "is": 106,
      "la": 107,
      "en": 108,
      "of": 109,
      "it": 110,
      "wi": 111,
      "ck": 112,
      "ow": 113,
      "with": 114,
      "or": 115,
      "ld": 116,
      "to": 117,
      "ir": 118,
      "es": 119,
      "et": 120,
      "oun": 121,
      "ch": 122,
      "op": 123,
      "id": 124,
      "ed": 125,
      "whi": 126,
      "are": 127,
      "bo": 128,
      "ear": 129,
      "king": 130,
      "ra": 131,
      "woman": 132,
      "oo": 133,
      "te": 134,
      "ss": 135,
      "all": 136,
      "pla": 137,
      "ic": 138,
      "men": 139,
      "do": 140,
      "pe": 141,
      "ro": 142,
      "ople": 143,
      "rt": 144,
      "ers": 145,
      "shi": 146,
      "ho": 147,
      "play": 148,
      "un": 149,
      "shirt": 150,
      "Two": 151,
      "wear": 152,
      "ge": 153,
      "bl": 154,
      "ting": 155,
      "wearing": 156,
      "as": 157,
      "ts": 158,
      "he": 159,
      "stand": 160,
      "wal": 161,
      "sit": 162,
      "people": 163,
      "ll": 164,
      "own": 165,
      "gr": 166,
      "ad": 167,
      "ide": 168,
      "oung": 169,
      "red": 170,
      "white": 171,
      "ue": 172,
      "lack": 173,
      "gh": 174,
      "me": 175,
      "be": 176,
      "irl": 177,
      "young": 178,
      "his": 179,
      "ther": 180,
      "black": 181,
      "girl": 182,
      "boy": 183,
      "ack": 184,
      "while": 185,
      "ri": 186,
      "ce": 187,
      "dog": 188,
      "blue": 189,
      "lding": 190,
      "ver": 191,
      "one": 192,
      "sh": 193,
      "co": 194,
      "for": 195,
      "wat": 196,
      "mp": 197,
      "ur": 198,
      "ta": 199,
      "se": 200,
      "ound": 201,
      "loo": 202,
      "her": 203,
      "sitting": 204,
      "hild": 205,
      "oup": 206,
      "air": 207,
      "ball": 208,
      "so": 209,
      "li": 210,
      "fr": 211,
      "standing": 212,
      "stre": 213,
      "bu": 214,
      "child": 215,
      "playing": 216,
      "ard": 217,
      "lo": 218,
      "ve": 219,
      "by": 220,
      "street": 221,
      "am": 222,
      "ont": 223,
      "down": 224,
      "ne": 225,
      "out": 226,
      "other": 227,
      "front": 228,
      "ree": 229,
      "group": 230,
      "il": 231,
      "sm": 232,
      "gra": 233,
      "ti": 234,
      "up": 235,
      "walking": 236,
      "br": 237,
      "walk": 238,
      "ma": 239,
      "ke": 240,
      "pa": 241,
      "holding": 242,
      "car": 243,
      "po": 244,
      "ress": 245,
      "water": 246,
      "dress": 247,
      "ju": 248,
      "back": 249,
      "side": 250,
      "fi": 251,
      "wor": 252,
      "wa": 253,
      "run": 254,
      "tle": 255,
      "some": 256,
      "ying": 257,
      "ach": 258,
      "ru": 259,
      "reen": 260,
      "ark": 261,
      "The": 262,
      "hat": 263,
      "thr": 264,
      "ind": 265,
      "sk": 266,
      "looking": 267,
      "uit": 268,
      "green": 269,
      "bi": 270,
      "two": 271,
      "form": 272,
      "ght": 273,
      "ground": 274,
      "jump": 275,
      "ell": 276,
      "rid": 277,
      "lar": 278,
      "ap": 279,
      "cle": 280,
      "ble": 281,
      "lit": 282,
      "ga": 283,
      "women": 284,
      "si": 285,
      "ks": 286,
      "An": 287,
      "outs": 288,
      "ba": 289,
      "ren": 290,
      "outside": 291,
      "large": 292,
      "Th": 293,
      "sn": 294,
      "ellow": 295,
      "pers": 296,
      "ough": 297,
      "over": 298,
      "yellow": 299,
      "brown": 300,
      "ong": 301,
      "sing": 302,
      "Three": 303,
      "di": 304,
      "cr": 305,
      "little": 306,
      "tra": 307,
      "old": 308,
      "tu": 309,
      "through": 310,
      "ter": 311,
      "person": 312,
      "snow": 313,
      "per": 314,
      "board": 315,
      "hand": 316,
      "mb": 317,
      "eld": 318,
      "fro": 319,
      "con": 320,
      "lass": 321,
      "ul": 322,
      "ly": 323,
      "their": 324,
      "from": 325,
      "ning": 326,
      "fe": 327,
      "xt": 328,
      "ink": 329,
      "bui": 330,
      "children": 331,
      "watch": 332,
      "building": 333,
      "into": 334,
      "jack": 335,
      "next": 336,
      "thing": 337,
      "small": 338,
      "jacket": 339,
      "ate": 340,
      "owd": 341,
      "ac": 342,
      "foo": 343,
      "mo": 344,
      "ving": 345,
      "crowd": 346,
      "dressed": 347,
      "glass": 348,
      "near": 349,
      "ans": 350,
      "ange": 351,
      "grass": 352,
      "ha": 353,
      "another": 354,
      "running": 355,
      "sc": 356,
      "pi": 357,
      "riding": 358,
      "pu": 359,
      "dy": 360,
      "cer": 361,
      "ture": 362,
      "Pe": 363,
      "ion": 364,
      "bas": 365,
      "People": 366,
      "male": 367,
      "we": 368,
      "around": 369,
      "ent": 370,
      "je": 371,
      "top": 372,
      "our": 373,
      "table": 374,
      "orange": 375,
      "field": 376,
      "off": 377,
      "sta": 378,
      "head": 379,
      "ycle": 380,
      "work": 381,
      "hair": 382,
      "ct": 383,
      "glasses": 384,
      "stands": 385,
      "Man": 386,
      "stru": 387,
      "beach": 388,
      "cli": 389,
      "hind": 390,
      "ep": 391,
      "background": 392,
      "clo": 393,
      "pink": 394,
      "hone": 395,
      "behind": 396,
      "sidewalk": 397,
      "cam": 398,
      "par": 399,
      "ine": 400,
      "sun": 401,
      "tal": 402,
      "door": 403,
      "ity": 404,
      "ore": 405,
      "ross": 406,
      "jumping": 407,
      "read": 408,
      "gu": 409,
      "way": 410,
      "rying": 411,
      "pic": 412,
      "fa": 413,
      "od": 414,
      "shor": 415,
      "tain": 416,
      "tion": 417,
      "de": 418,
      "bike": 419,
      "sits": 420,
      "camer": 421,
      "go": 422,
      "girls": 423,
      "der": 424,
      "us": 425,
      "rock": 426,
      "sur": 427,
      "iling": 428,
      "camera": 429,
      "ond": 430,
      "park": 431,
      "suit": 432,
      "that": 433,
      "ating": 434,
      "looks": 435,
      "wall": 436,
      "ice": 437,
      "pan": 438,
      "perform": 439,
      "rop": 440,
      "picture": 441,
      "wood": 442,
      "ment": 443,
      "end": 444,
      "ff": 445,
      "dogs": 446,
      "fl": 447,
      "ped": 448,
      "uitar": 449,
      "guitar": 450,
      "dle": 451,
      "ool": 452,
      "dan": 453,
      "ay": 454,
      "city": 455,
      "met": 456,
      "player": 457,
      "ves": 458,
      "irt": 459,
      "him": 460,
      "bic": 461,
      "ick": 462,
      "has": 463,
      "working": 464,
      "hel": 465,
      "ountain": 466,
      "gray": 467,
      "get": 468,
      "soc": 469,
      "hold": 470,
      "cing": 471,
      "bus": 472,
      "something": 473,
      "older": 474,
      "stri": 475,
      "veral": 476,
      "oom": 477,
      "sho": 478,
      "ca": 479,
      "mid": 480,
      "ling": 481,
      "ction": 482,
      "talking": 483,
      "soccer": 484,
      "shorts": 485,
      "road": 486,
      "led": 487,
      "bri": 488,
      "pants": 489,
      "stu": 490,
      "arm": 491,
      "blond": 492,
      "ant": 493,
      "ish": 494,
      "Asi": 495,
      "walks": 496,
      "ey": 497,
      "uni": 498,
      "gg": 499,
      "ben": 500,
      "sp": 501,
      "gn": 502,
      "plays": 503,
      "guy": 504,
      "wing": 505,
      "dr": 506,
      "boo": 507,
      "boys": 508,
      "ation": 509,
      "skate": 510,
      "them": 511,
      "uniform": 512,
      "hor": 513,
      "jeans": 514,
      "qu": 515,
      "smiling": 516,
      "Asian": 517,
      "lady": 518,
      "bench": 519,
      "les": 520,
      "pre": 521,
      "along": 522,
      "ket": 523,
      "dark": 524,
      "wim": 525,
      "kes": 526,
      "col": 527,
      "che": 528,
      "face": 529,
      "sa": 530,
      "bicycle": 531,
      "cu": 532,
      "swim": 533,
      "food": 534,
      "jo": 535,
      "game": 536,
      "its": 537,
      "sand": 538,
      "chair": 539,
      "gether": 540,
      "together": 541,
      "carrying": 542,
      "holds": 543,
      "pur": 544,
      "gs": 545,
      "ol": 546,
      "swe": 547,
      "tor": 548,
      "atch": 549,
      "look": 550,
      "umb": 551,
      "comp": 552,
      "here": 553,
      "skateboard": 554,
      "long": 555,
      "ten": 556,
      "pain": 557,
      "foot": 558,
      "base": 559,
      "tan": 560,
      "outdoor": 561,
      "climb": 562,
      "ping": 563,
      "el": 564,
      "under": 565,
      "boat": 566,
      "room": 567,
      "mer": 568,
      "pl": 569,
      "tri": 570,
      "ple": 571,
      "coat": 572,
      "Four": 573,
      "set": 574,
      "baby": 575,
      "dirt": 576,
      "stage": 577,
      "ming": 578,
      "pro": 579,
      "mountain": 580,
      "who": 581,
      "band": 582,
      "outh": 583,
      "sign": 584,
      "kid": 585,
      "tow": 586,
      "mic": 587,
      "ful": 588,
      "tree": 589,
      "hands": 590,
      "Se": 591,
      "day": 592,
      "pool": 593,
      "iting": 594,
      "doing": 595,
      "taking": 596,
      "ence": 597,
      "flo": 598,
      "spe": 599,
      "bar": 600,
      "each": 601,
      "watching": 602,
      "cor": 603,
      "phone": 604,
      "coup": 605,
      "wind": 606,
      "shop": 607,
      "race": 608,
      "lling": 609,
      "female": 610,
      "ex": 611,
      "team": 612,
      "sweat": 613,
      "area": 614,
      "au": 615,
      "helmet": 616,
      "basket": 617,
      "owing": 618,
      "cross": 619,
      "couple": 620,
      "sle": 621,
      "baseball": 622,
      "hoto": 623,
      "mouth": 624,
      "ican": 625,
      "usic": 626,
      "motor": 627,
      "fore": 628,
      "being": 629,
      "striped": 630,
      "photo": 631,
      "cover": 632,
      "Several": 633,
      "struction": 634,
      "Wo": 635,
      "light": 636,
      "vi": 637,
      "three": 638,
      "ty": 639,
      "performing": 640,
      "color": 641,
      "jumps": 642,
      "mar": 643,
      "music": 644,
      "cap": 645,
      "middle": 646,
      "swing": 647,
      "purple": 648,
      "sts": 649,
      "across": 650,
      "horse": 651,
      "app": 652,
      "toy": 653,
      "cre": 654,
      "sl": 655,
      "fla": 656,
      "toward": 657,
      "store": 658,
      "ses": 659,
      "sunglasses": 660,
      "window": 661,
      "ni": 662,
      "eating": 663,
      "round": 664,
      "she": 665,
      "microp": 666,
      "cks": 667,
      "stick": 668,
      "runs": 669,
      "ner": 670,
      "Young": 671,
      "ft": 672,
      "football": 673,
      "uring": 674,
      "ired": 675,
      "surf": 676,
      "gather": 677,
      "tre": 678,
      "train": 679,
      "ag": 680,
      "cl": 681,
      "using": 682,
      "posing": 683,
      "no": 684,
      "There": 685,
      "bag": 686,
      "haired": 687,
      "rel": 688,
      "um": 689,
      "reading": 690,
      "ob": 691,
      "dri": 692,
      "na": 693,
      "gi": 694,
      "mark": 695,
      "itch": 696,
      "ab": 697,
      "microphone": 698,
      "nis": 699,
      "ian": 700,
      "ph": 701,
      "tennis": 702,
      "inst": 703,
      "floor": 704,
      "des": 705,
      "ev": 706,
      "ated": 707,
      "fire": 708,
      "construction": 709,
      "tru": 710,
      "shirts": 711,
      "players": 712,
      "ines": 713,
      "hill": 714,
      "hu": 715,
      "catch": 716,
      "flow": 717,
      "ouch": 718,
      "adul": 719,
      "watches": 720,
      "can": 721,
      "rides": 722,
      "motorc": 723,
      "aga": 724,
      "wooden": 725,
      "tting": 726,
      "dancing": 727,
      "bal": 728,
      "ang": 729,
      "ted": 730,
      "open": 731,
      "cean": 732,
      "ak": 733,
      "ry": 734,
      "fish": 735,
      "ms": 736,
      "against": 737,
      "du": 738,
      "paper": 739,
      "erly": 740,
      "ocean": 741,
      "ive": 742,
      "enjo": 743,
      "roll": 744,
      "covered": 745,
      "ski": 746,
      "ouse": 747,
      "mu": 748,
      "about": 749,
      "waiting": 750,
      "bow": 751,
      "pack": 752,
      "lored": 753,
      "fu": 754,
      "ley": 755,
      "basketball": 756,
      "ade": 757,
      "bright": 758,
      "market": 759,
      "smi": 760,
      "past": 761,
      "bes": 762,
      "during": 763,
      "drin": 764,
      "lea": 765,
      "high": 766,
      "clothing": 767,
      "outf": 768,
      "instru": 769,
      "aning": 770,
      "busy": 771,
      "climbing": 772,
      "kids": 773,
      "su": 774,
      "line": 775,
      "surround": 776,
      "Woman": 777,
      "getting": 778,
      "having": 779,
      "staur": 780,
      "trees": 781,
      "pass": 782,
      "swimming": 783,
      "workers": 784,
      "restaur": 785,
      "elderly": 786,
      "One": 787,
      "cell": 788,
      "costu": 789,
      "rella": 790,
      "So": 791,
      "ding": 792,
      "very": 793,
      "umbrella": 794,
      "pie": 795,
      "restaurant": 796,
      "dis": 797,
      "making": 798,
      "colorful": 799,
      "motorcycle": 800,
      "ows": 801,
      "full": 802,
      "less": 803,
      "thers": 804,
      "ler": 805,
      "vers": 806,
      "they": 807,
      "inside": 808,
      "ous": 809,
      "book": 810,
      "truck": 811,
      "ance": 812,
      "ride": 813,
      "age": 814,
      "ces": 815,
      "singing": 816,
      "bear": 817,
      "ath": 818,
      "fence": 819,
      "trying": 820,
      "cket": 821,
      "art": 822,
      "ort": 823,
      "whe": 824,
      "shing": 825,
      "ily": 826,
      "brick": 827,
      "ip": 828,
      "eping": 829,
      "hats": 830,
      "path": 831,
      "eps": 832,
      "ban": 833,
      "ny": 834,
      "body": 835,
      "vest": 836,
      "cart": 837,
      "kick": 838,
      "ser": 839,
      "ew": 840,
      "stic": 841,
      "big": 842,
      "clothe": 843,
      "ci": 844,
      "towards": 845,
      "sweater": 846,
      "ycli": 847,
      "colored": 848,
      "night": 849,
      "Some": 850,
      "fac": 851,
      "rest": 852,
      "box": 853,
      "als": 854,
      "beside": 855,
      "lake": 856,
      "dd": 857,
      "gging": 858,
      "im": 859,
      "new": 860,
      "track": 861,
      "cas": 862,
      "ood": 863,
      "itchen": 864,
      "ons": 865,
      "stone": 866,
      "hang": 867,
      "lau": 868,
      "river": 869,
      "surrounded": 870,
      "mach": 871,
      "arms": 872,
      "cellphone": 873,
      "inter": 874,
      "grassy": 875,
      "laying": 876,
      "backpack": 877,
      "kitchen": 878,
      "mas": 879,
      "piece": 880,
      "lap": 881,
      "tic": 882,
      "tur": 883,
      "pol": 884,
      "stair": 885,
      "Child": 886,
      "cow": 887,
      "outdoors": 888,
      "rain": 889,
      "laugh": 890,
      "bot": 891,
      "bik": 892,
      "dru": 893,
      "like": 894,
      "compet": 895,
      "house": 896,
      "beard": 897,
      "others": 898,
      "clothes": 899,
      "coo": 900,
      "ring": 901,
      "several": 902,
      "Men": 903,
      "This": 904,
      "ates": 905,
      "ird": 906,
      "cking": 907,
      "ckey": 908,
      "painting": 909,
      "tank": 910,
      "sha": 911,
      "ject": 912,
      "coun": 913,
      "ster": 914,
      "outfit": 915,
      "ors": 916,
      "many": 917,
      "af": 918,
      "smo": 919,
      "hard": 920,
      "sub": 921,
      "abo": 922,
      "yard": 923,
      "mes": 924,
      "brid": 925,
      "shoes": 926,
      "shopping": 927,
      "ears": 928,
      "kne": 929,
      "unch": 930,
      "ash": 931,
      "photogra": 932,
      "ele": 933,
      "ould": 934,
      "trick": 935,
      "todd": 936,
      "temp": 937,
      "above": 938,
      "ope": 939,
      "ments": 940,
      "uniforms": 941,
      "fo": 942,
      "right": 943,
      "enjoying": 944,
      "worker": 945,
      "fli": 946,
      "event": 947,
      "snowy": 948,
      "wheel": 949,
      "lot": 950,
      "poin": 951,
      "ready": 952,
      "hanging": 953,
      "scar": 954,
      "four": 955,
      "metal": 956,
      "drinking": 957,
      "gy": 958,
      "ite": 959,
      "pare": 960,
      "ys": 961,
      "cur": 962,
      "pra": 963,
      "iti": 964,
      "In": 965,
      "vel": 966,
      "mon": 967,
      "sleeping": 968,
      "teen": 969,
      "fri": 970,
      "onto": 971,
      "frican": 972,
      "plan": 973,
      "guys": 974,
      "away": 975,
      "bles": 976,
      "after": 977,
      "vol": 978,
      "dra": 979,
      "ends": 980,
      "ones": 981,
      "takes": 982,
      "snowboard": 983,
      "rope": 984,
      "roller": 985,
      "bridge": 986,
      "toddler": 987,
      "going": 988,
      "pole": 989,
      "Five": 990,
      "leap": 991,
      "gathered": 992,
      "dance": 993,
      "Children": 994,
      "gen": 995,
      "racing": 996,
      "rocks": 997,
      "den": 998,
      "ition": 999,
      "sky": 1000,
      "numb": 1001,
      "ill": 1002,
      "pr": 1003,
      "wave": 1004,
      "what": 1005,
      "should": 1006,
      "flowers": 1007,
      "smiles": 1008,
      "fam": 1009,
      "cal": 1010,
      "adults": 1011,
      "gear": 1012,
      "Amer": 1013,
      "both": 1014,
      "view": 1015,
      "prepar": 1016,
      "fall": 1017,
      "leaning": 1018,
      "tire": 1019,
      "star": 1020,
      "steps": 1021,
      "pose": 1022,
      "stra": 1023,
      "crowded": 1024,
      "cra": 1025,
      "Many": 1026,
      "bet": 1027,
      "chas": 1028,
      "gym": 1029,
      "short": 1030,
      "compu": 1031,
      "left": 1032,
      "fountain": 1033,
      "police": 1034,
      "bed": 1035,
      "attemp": 1036,
      "ven": 1037,
      "ron": 1038,
      "scarf": 1039,
      "class": 1040,
      "subway": 1041,
      "skirt": 1042,
      "preparing": 1043,
      "rail": 1044,
      "sto": 1045,
      "ersey": 1046,
      "fil": 1047,
      "flag": 1048,
      "have": 1049,
      "jersey": 1050,
      "family": 1051,
      "wet": 1052,
      "ps": 1053,
      "too": 1054,
      "ist": 1055,
      "chairs": 1056,
      "lead": 1057,
      "hockey": 1058,
      "sunny": 1059,
      "which": 1060,
      "costume": 1061,
      "ric": 1062,
      "ween": 1063,
      "fishing": 1064,
      "between": 1065,
      "bre": 1066,
      "stop": 1067,
      "wn": 1068,
      "carri": 1069,
      "ats": 1070,
      "bee": 1071,
      "cowboy": 1072,
      "iv": 1073,
      "lf": 1074,
      "convers": 1075,
      "American": 1076,
      "ned": 1077,
      "ary": 1078,
      "ballo": 1079,
      "pract": 1080,
      "make": 1081,
      "bor": 1082,
      "number": 1083,
      "African": 1084,
      "prepare": 1085,
      "let": 1086,
      "blic": 1087,
      "but": 1088,
      "fet": 1089,
      "kis": 1090,
      "just": 1091,
      "ris": 1092,
      "home": 1093,
      "graff": 1094,
      "public": 1095,
      "Ch": 1096,
      "ari": 1097,
      "ening": 1098,
      "laughing": 1099,
      "match": 1100,
      "corner": 1101,
      "med": 1102,
      "setting": 1103,
      "machine": 1104,
      "dist": 1105,
      "bags": 1106,
      "shirtless": 1107,
      "stairs": 1108,
      "pot": 1109,
      "forest": 1110,
      "net": 1111,
      "plaid": 1112,
      "graffiti": 1113,
      "instruments": 1114,
      "gar": 1115,
      "couch": 1116,
      "cup": 1117,
      "wr": 1118,
      "ery": 1119,
      "ste": 1120,
      "leyball": 1121,
      "hicle": 1122,
      "drink": 1123,
      "list": 1124,
      "xing": 1125,
      "clu": 1126,
      "bottle": 1127,
      "squ": 1128,
      "where": 1129,
      "vehicle": 1130,
      "trail": 1131,
      "volleyball": 1132,
      "tall": 1133,
      "gold": 1134,
      "appears": 1135,
      "yclist": 1136,
      "equ": 1137,
      "ins": 1138,
      "auti": 1139,
      "ise": 1140,
      "plastic": 1141,
      "bat": 1142,
      "prote": 1143,
      "ramp": 1144,
      "concre": 1145,
      "concrete": 1146,
      "cou": 1147,
      "selling": 1148,
      "suits": 1149,
      "spea": 1150,
      "glo": 1151,
      "land": 1152,
      "int": 1153,
      "ally": 1154,
      "equip": 1155,
      "ched": 1156,
      "autiful": 1157,
      "someone": 1158,
      "scen": 1159,
      "dies": 1160,
      "adult": 1161,
      "sweatshirt": 1162,
      "cture": 1163,
      "seated": 1164,
      "shes": 1165,
      "asian": 1166,
      "gentle": 1167,
      "stat": 1168,
      "blo": 1169,
      "bird": 1170,
      "midair": 1171,
      "take": 1172,
      "pad": 1173,
      "edge": 1174,
      "photograph": 1175,
      "equipment": 1176,
      "court": 1177,
      "there": 1178,
      "ined": 1179,
      "ward": 1180,
      "gare": 1181,
      "lls": 1182,
      "offic": 1183,
      "ending": 1184,
      "cooking": 1185,
      "bikes": 1186,
      "woods": 1187,
      "news": 1188,
      "computer": 1189,
      "row": 1190,
      "does": 1191,
      "slide": 1192,
      "cigare": 1193,
      "cigaret": 1194,
      "ref": 1195,
      "mat": 1196,
      "chool": 1197,
      "putting": 1198,
      "pat": 1199,
      "see": 1200,
      "enter": 1201,
      "aged": 1202,
      "low": 1203,
      "sca": 1204,
      "object": 1205,
      "beautiful": 1206,
      "pushing": 1207,
      "sil": 1208,
      "fruit": 1209,
      "mountains": 1210,
      "works": 1211,
      "tat": 1212,
      "roof": 1213,
      "distance": 1214,
      "try": 1215,
      "time": 1216,
      "pictures": 1217,
      "boots": 1218,
      "nearby": 1219,
      "flower": 1220,
      "place": 1221,
      "Bo": 1222,
      "lad": 1223,
      "site": 1224,
      "throwing": 1225,
      "knee": 1226,
      "poses": 1227,
      "spor": 1228,
      "scope": 1229,
      "audi": 1230,
      "elect": 1231,
      "ved": 1232,
      "tive": 1233,
      "ki": 1234,
      "rap": 1235,
      "reach": 1236,
      "rider": 1237,
      "Girl": 1238,
      "buildings": 1239,
      "close": 1240,
      "filled": 1241,
      "anim": 1242,
      "ladies": 1243,
      "rist": 1244,
      "emp": 1245,
      "ure": 1246,
      "performs": 1247,
      "eyes": 1248,
      "painted": 1249,
      "cigarette": 1250,
      "mil": 1251,
      "playground": 1252,
      "show": 1253,
      "crossing": 1254,
      "winter": 1255,
      "audience": 1256,
      "ini": 1257,
      "bucket": 1258,
      "pulling": 1259,
      "pair": 1260,
      "skateboarder": 1261,
      "school": 1262,
      "happ": 1263,
      "tattoo": 1264,
      "ium": 1265,
      "lawn": 1266,
      "fight": 1267,
      "fun": 1268,
      "station": 1269,
      "tial": 1270,
      "horses": 1271,
      "ggles": 1272,
      "smoking": 1273,
      "vy": 1274,
      "instrument": 1275,
      "leaves": 1276,
      "practic": 1277,
      "ching": 1278,
      "party": 1279,
      "flip": 1280,
      "Fris": 1281,
      "mul": 1282,
      "ghts": 1283,
      "neck": 1284,
      "rocky": 1285,
      "statue": 1286,
      "hood": 1287,
      "spla": 1288,
      "reads": 1289,
      "driving": 1290,
      "ical": 1291,
      "slid": 1292,
      "mi": 1293,
      "ining": 1294,
      "parade": 1295,
      "Frisbee": 1296,
      "bb": 1297,
      "cleaning": 1298,
      "lying": 1299,
      "alley": 1300,
      "drum": 1301,
      "ese": 1302,
      "giving": 1303,
      "display": 1304,
      "break": 1305,
      "Lit": 1306,
      "iz": 1307,
      "cream": 1308,
      "concer": 1309,
      "structure": 1310,
      "safet": 1311,
      "cutting": 1312,
      "mud": 1313,
      "Little": 1314,
      "safety": 1315,
      "blan": 1316,
      "bub": 1317,
      "veget": 1318,
      "few": 1319,
      "vend": 1320,
      "hit": 1321,
      "makes": 1322,
      "len": 1323,
      "beer": 1324,
      "ial": 1325,
      "Gr": 1326,
      "apron": 1327,
      "tele": 1328,
      "goal": 1329,
      "por": 1330,
      "wed": 1331,
      "rais": 1332,
      "cheer": 1333,
      "iness": 1334,
      "shore": 1335,
      "vari": 1336,
      "ere": 1337,
      "ators": 1338,
      "Women": 1339,
      "case": 1340,
      "dresses": 1341,
      "pres": 1342,
      "paint": 1343,
      "smile": 1344,
      "gloves": 1345,
      "vis": 1346,
      "cars": 1347,
      "wait": 1348,
      "spect": 1349,
      "friends": 1350,
      "carries": 1351,
      "blanket": 1352,
      "gentleman": 1353,
      "key": 1354,
      "bathing": 1355,
      "concert": 1356,
      "cut": 1357,
      "cir": 1358,
      "dock": 1359,
      "shoulder": 1360,
      "sty": 1361,
      "ids": 1362,
      "showing": 1363,
      "ctor": 1364,
      "ops": 1365,
      "bull": 1366,
      "dire": 1367,
      "gun": 1368,
      "tie": 1369,
      "mother": 1370,
      "jackets": 1371,
      "ie": 1372,
      "ess": 1373,
      "phones": 1374,
      "llar": 1375,
      "martial": 1376,
      "arts": 1377,
      "railing": 1378,
      "rode": 1379,
      "hot": 1380,
      "drums": 1381,
      "counter": 1382,
      "ctive": 1383,
      "newspaper": 1384,
      "pon": 1385,
      "arti": 1386,
      "vests": 1387,
      "bowl": 1388,
      "pet": 1389,
      "town": 1390,
      "sting": 1391,
      "drinks": 1392,
      "mask": 1393,
      "vegeta": 1394,
      "ight": 1395,
      "dry": 1396,
      "costumes": 1397,
      "har": 1398,
      "rela": 1399,
      "among": 1400,
      "business": 1401,
      "decor": 1402,
      "bunch": 1403,
      "parked": 1404,
      "use": 1405,
      "wrest": 1406,
      "goggles": 1407,
      "facing": 1408,
      "rodeo": 1409,
      "bare": 1410,
      "ork": 1411,
      "ette": 1412,
      "surfer": 1413,
      "bowling": 1414,
      "pointing": 1415,
      "ghting": 1416,
      "lookers": 1417,
      "res": 1418,
      "grill": 1419,
      "ffer": 1420,
      "zz": 1421,
      "bru": 1422,
      "prepares": 1423,
      "practicing": 1424,
      "lined": 1425,
      "check": 1426,
      "dents": 1427,
      "Group": 1428,
      "port": 1429,
      "talks": 1430,
      "feet": 1431,
      "listening": 1432,
      "scene": 1433,
      "sports": 1434,
      "teams": 1435,
      "flying": 1436,
      "Indi": 1437,
      "wash": 1438,
      "cliff": 1439,
      "swinging": 1440,
      "tent": 1441,
      "fee": 1442,
      "snowboarder": 1443,
      "electric": 1444,
      "differ": 1445,
      "pile": 1446,
      "Someone": 1447,
      "kay": 1448,
      "stret": 1449,
      "biker": 1450,
      "els": 1451,
      "ladder": 1452,
      "sed": 1453,
      "trun": 1454,
      "memb": 1455,
      "flags": 1456,
      "different": 1457,
      "ign": 1458,
      "nic": 1459,
      "parking": 1460,
      "turn": 1461,
      "str": 1462,
      "offee": 1463,
      "desk": 1464,
      "uses": 1465,
      "slee": 1466,
      "vendor": 1467,
      "ds": 1468,
      "onlookers": 1469,
      "cement": 1470,
      "waves": 1471,
      "surfboard": 1472,
      "pher": 1473,
      "life": 1474,
      "staring": 1475,
      "speaking": 1476,
      "wedding": 1477,
      "cha": 1478,
      "sion": 1479,
      "this": 1480,
      "coffee": 1481,
      "before": 1482,
      "produ": 1483,
      "country": 1484,
      "yclists": 1485,
      "laptop": 1486,
      "younger": 1487,
      "shot": 1488,
      "card": 1489,
      "ator": 1490,
      "idu": 1491,
      "screen": 1492,
      "leather": 1493,
      "plane": 1494,
      "mir": 1495,
      "coming": 1496,
      "skateboarding": 1497,
      "ger": 1498,
      "empty": 1499,
      "fing": 1500,
      "ham": 1501,
      "leans": 1502,
      "legs": 1503,
      "scoo": 1504,
      "viol": 1505,
      "conversation": 1506,
      "silver": 1507,
      "cts": 1508,
      "made": 1509,
      "attire": 1510,
      "talk": 1511,
      "kicking": 1512,
      "sort": 1513,
      "ters": 1514,
      "ural": 1515,
      "sled": 1516,
      "erson": 1517,
      "tail": 1518,
      "foreground": 1519,
      "pitch": 1520,
      "chi": 1521,
      "purse": 1522,
      "Old": 1523,
      "ced": 1524,
      "indiv": 1525,
      "obser": 1526,
      "individu": 1527,
      "tee": 1528,
      "ulp": 1529,
      "shovel": 1530,
      "spra": 1531,
      "spectators": 1532,
      "say": 1533,
      "chasing": 1534,
      "clear": 1535,
      "same": 1536,
      "ians": 1537,
      "shad": 1538,
      "overlooking": 1539,
      "items": 1540,
      "leaps": 1541,
      "Person": 1542,
      "cers": 1543,
      "gets": 1544,
      "cake": 1545,
      "Boy": 1546,
      "various": 1547,
      "ies": 1548,
      "shoo": 1549,
      "exam": 1550,
      "tr": 1551,
      "climbs": 1552,
      "competition": 1553,
      "din": 1554,
      "mall": 1555,
      "touch": 1556,
      "not": 1557,
      "writing": 1558,
      "cat": 1559,
      "gro": 1560,
      "pes": 1561,
      "gard": 1562,
      "ton": 1563,
      "gaz": 1564,
      "sculp": 1565,
      "cting": 1566,
      "fur": 1567,
      "sea": 1568,
      "lan": 1569,
      "plat": 1570,
      "meal": 1571,
      "animal": 1572,
      "cont": 1573,
      "itary": 1574,
      "attempting": 1575,
      "kneeling": 1576,
      "ber": 1577,
      "hoo": 1578,
      "mers": 1579,
      "tables": 1580,
      "tries": 1581,
      "surfing": 1582,
      "outfits": 1583,
      "skier": 1584,
      "Si": 1585,
      "sold": 1586,
      "students": 1587,
      "bicycles": 1588,
      "signs": 1589,
      "cy": 1590,
      "ken": 1591,
      "golf": 1592,
      "bur": 1593,
      "fully": 1594,
      "bearded": 1595,
      "balloon": 1596,
      "fen": 1597,
      "wears": 1598,
      "diving": 1599,
      "ass": 1600,
      "Con": 1601,
      "lies": 1602,
      "musical": 1603,
      "sup": 1604,
      "ches": 1605,
      "urban": 1606,
      "bikini": 1607,
      "bs": 1608,
      "ffic": 1609,
      "ddle": 1610,
      "indoor": 1611,
      "stroller": 1612,
      "fighting": 1613,
      "skin": 1614,
      "dition": 1615,
      "tack": 1616,
      "streets": 1617,
      "leg": 1618,
      "lights": 1619,
      "inese": 1620,
      "grocer": 1621,
      "Six": 1622,
      "violin": 1623,
      "cand": 1624,
      "nel": 1625,
      "bride": 1626,
      "five": 1627,
      "Indian": 1628,
      "Do": 1629,
      "sticks": 1630,
      "block": 1631,
      "vegetables": 1632,
      "que": 1633,
      "hea": 1634,
      "wrap": 1635,
      "sings": 1636,
      "platform": 1637,
      "good": 1638,
      "helmets": 1639,
      "balan": 1640,
      "kissing": 1641,
      "says": 1642,
      "ient": 1643,
      "well": 1644,
      "vert": 1645,
      "gathering": 1646,
      "bald": 1647,
      "ls": 1648,
      "sleeve": 1649,
      "sof": 1650,
      "allow": 1651,
      "bla": 1652,
      "blowing": 1653,
      "vide": 1654,
      "contain": 1655,
      "sunset": 1656,
      "ners": 1657,
      "tool": 1658,
      "camp": 1659,
      "clou": 1660,
      "faces": 1661,
      "ker": 1662,
      "lebr": 1663,
      "held": 1664,
      "celebr": 1665,
      "ristmas": 1666,
      "leash": 1667,
      "throw": 1668,
      "clown": 1669,
      "military": 1670,
      "nit": 1671,
      "ledge": 1672,
      "resting": 1673,
      "load": 1674,
      "walkway": 1675,
      "video": 1676,
      "scooter": 1677,
      "cour": 1678,
      "py": 1679,
      "son": 1680,
      "advert": 1681,
      "stream": 1682,
      "traffic": 1683,
      "teenag": 1684,
      "balloons": 1685,
      "trunks": 1686,
      "alone": 1687,
      "classroom": 1688,
      "pour": 1689,
      "sandy": 1690,
      "cano": 1691,
      "course": 1692,
      "bra": 1693,
      "crouch": 1694,
      "vice": 1695,
      "self": 1696,
      "wooded": 1697,
      "gymna": 1698,
      "collar": 1699,
      "pier": 1700,
      "males": 1701,
      "cloth": 1702,
      "type": 1703,
      "athon": 1704,
      "bubbles": 1705,
      "partic": 1706,
      "huge": 1707,
      "present": 1708,
      "gre": 1709,
      "hiking": 1710,
      "seen": 1711,
      "upside": 1712,
      "foll": 1713,
      "circle": 1714,
      "garden": 1715,
      "able": 1716,
      "waits": 1717,
      "most": 1718,
      "swings": 1719,
      "happy": 1720,
      "atta": 1721,
      "lay": 1722,
      "oper": 1723,
      "shows": 1724,
      "part": 1725,
      "competing": 1726,
      "estri": 1727,
      "tun": 1728,
      "ater": 1729,
      "hole": 1730,
      "trash": 1731,
      "ditional": 1732,
      "waving": 1733,
      "skiing": 1734,
      "straw": 1735,
      "artist": 1736,
      "rink": 1737,
      "father": 1738,
      "helping": 1739,
      "direction": 1740,
      "lu": 1741,
      "brun": 1742,
      "plate": 1743,
      "project": 1744,
      "deser": 1745,
      "athle": 1746,
      "teach": 1747,
      "meat": 1748,
      "seat": 1749,
      "booth": 1750,
      "refle": 1751,
      "pup": 1752,
      "passing": 1753,
      "Black": 1754,
      "dish": 1755,
      "rug": 1756,
      "headphones": 1757,
      "ast": 1758,
      "pen": 1759,
      "ror": 1760,
      "ered": 1761,
      "ares": 1762,
      "rol": 1763,
      "fest": 1764,
      "officer": 1765,
      "Construction": 1766,
      "eat": 1767,
      "kar": 1768,
      "ness": 1769,
      "flat": 1770,
      "opposing": 1771,
      "com": 1772,
      "skating": 1773,
      "micro": 1774,
      "sliding": 1775,
      "ima": 1776,
      "guard": 1777,
      "sandals": 1778,
      "ked": 1779,
      "moving": 1780,
      "stuff": 1781,
      "brightly": 1782,
      "post": 1783,
      "traditional": 1784,
      "coats": 1785,
      "teenage": 1786,
      "friend": 1787,
      "stad": 1788,
      "die": 1789,
      "musicians": 1790,
      "leaping": 1791,
      "sculpture": 1792,
      "brunette": 1793,
      "hal": 1794,
      "mirror": 1795,
      "stadium": 1796,
      "chur": 1797,
      "barefoot": 1798,
      "soldi": 1799,
      "ges": 1800,
      "sy": 1801,
      "mance": 1802,
      "inclu": 1803,
      "ession": 1804,
      "formance": 1805,
      "aster": 1806,
      "doorway": 1807,
      "multic": 1808,
      "ative": 1809,
      "performance": 1810,
      "cafe": 1811,
      "chef": 1812,
      "waters": 1813,
      "tracks": 1814,
      "marathon": 1815,
      "karate": 1816,
      "closed": 1817,
      "church": 1818,
      "shallow": 1819,
      "prof": 1820,
      "books": 1821,
      "shoulders": 1822,
      "lab": 1823,
      "balls": 1824,
      "veling": 1825,
      "Christmas": 1826,
      "repair": 1827,
      "fixing": 1828,
      "wea": 1829,
      "enjoy": 1830,
      "kha": 1831,
      "deck": 1832,
      "botto": 1833,
      "photographer": 1834,
      "stun": 1835,
      "digging": 1836,
      "toys": 1837,
      "fin": 1838,
      "olored": 1839,
      "van": 1840,
      "string": 1841,
      "allen": 1842,
      "rolling": 1843,
      "ige": 1844,
      "accor": 1845,
      "office": 1846,
      "cau": 1847,
      "fair": 1848,
      "how": 1849,
      "val": 1850,
      "tramp": 1851,
      "colle": 1852,
      "dirty": 1853,
      "custo": 1854,
      "hugging": 1855,
      "attached": 1856,
      "hur": 1857,
      "pul": 1858,
      "ering": 1859,
      "ents": 1860,
      "cho": 1861,
      "below": 1862,
      "cuss": 1863,
      "heavy": 1864,
      "canoe": 1865,
      "Whi": 1866,
      "emb": 1867,
      "kind": 1868,
      "kayak": 1869,
      "accordi": 1870,
      "hall": 1871,
      "deep": 1872,
      "oline": 1873,
      "Kids": 1874,
      "pond": 1875,
      "sus": 1876,
      "third": 1877,
      "hoop": 1878,
      "umbrellas": 1879,
      "makeup": 1880,
      "desert": 1881,
      "multicolored": 1882,
      "tong": 1883,
      "leep": 1884,
      "ower": 1885,
      "beige": 1886,
      "throws": 1887,
      "particip": 1888,
      "trampoline": 1889,
      "accordion": 1890,
      "bun": 1891,
      "asleep": 1892,
      "papers": 1893,
      "pret": 1894,
      "nose": 1895,
      "members": 1896,
      "ace": 1897,
      "cri": 1898,
      "ut": 1899,
      "ature": 1900,
      "washing": 1901,
      "microscope": 1902,
      "laun": 1903,
      "lays": 1904,
      "crying": 1905,
      "drawing": 1906,
      "reaching": 1907,
      "grocery": 1908,
      "fts": 1909,
      "covering": 1910,
      "eved": 1911,
      "catching": 1912,
      "Work": 1913,
      "fra": 1914,
      "runner": 1915,
      "performer": 1916,
      "giant": 1917,
      "scaff": 1918,
      "eye": 1919,
      "Chinese": 1920,
      "nice": 1921,
      "press": 1922,
      "alls": 1923,
      "bel": 1924,
      "himself": 1925,
      "boats": 1926,
      "sleeved": 1927,
      "telescope": 1928,
      "warm": 1929,
      "dles": 1930,
      "relaxing": 1931,
      "produce": 1932,
      "stor": 1933,
      "gage": 1934,
      "ended": 1935,
      "jogging": 1936,
      "tricks": 1937,
      "windows": 1938,
      "wards": 1939,
      "dinner": 1940,
      "hoodie": 1941,
      "hou": 1942,
      "lers": 1943,
      "chain": 1944,
      "farm": 1945,
      "heads": 1946,
      "aught": 1947,
      "rollers": 1948,
      "bble": 1949,
      "daught": 1950,
      "inning": 1951,
      "neath": 1952,
      "move": 1953,
      "dances": 1954,
      "sweeping": 1955,
      "underneath": 1956,
      "attempts": 1957,
      "fan": 1958,
      "eng": 1959,
      "lift": 1960,
      "stacle": 1961,
      "obstacle": 1962,
      "catches": 1963,
      "finish": 1964,
      "cent": 1965,
      "cyclist": 1966,
      "gon": 1967,
      "atop": 1968,
      "rack": 1969,
      "discuss": 1970,
      "matching": 1971,
      "style": 1972,
      "cheerlead": 1973,
      "hammer": 1974,
      "stuffed": 1975,
      "flu": 1976,
      "falling": 1977,
      "ival": 1978,
      "estrians": 1979,
      "min": 1980,
      "wine": 1981,
      "robe": 1982,
      "picnic": 1983,
      "dancers": 1984,
      "pulled": 1985,
      "susp": 1986,
      "Bl": 1987,
      "tball": 1988,
      "ual": 1989,
      "plants": 1990,
      "scape": 1991,
      "teeth": 1992,
      "half": 1993,
      "lone": 1994,
      "racket": 1995,
      "bly": 1996,
      "lly": 1997,
      "pick": 1998,
      "appear": 1999,
      "must": 2000,
      "decorated": 2001,
      "fallen": 2002,
      "ital": 2003,
      "ship": 2004,
      "bran": 2005,
      "clean": 2006,
      "pushes": 2007,
      "device": 2008,
      "ggling": 2009,
      "ages": 2010,
      "dun": 2011,
      "sax": 2012,
      "officers": 2013,
      "individuals": 2014,
      "spray": 2015,
      "don": 2016,
      "drop": 2017,
      "gate": 2018,
      "igh": 2019,
      "pipe": 2020,
      "daughter": 2021,
      "step": 2022,
      "wide": 2023,
      "put": 2024,
      "headed": 2025,
      "camou": 2026,
      "goes": 2027,
      "splashing": 2028,
      "muddy": 2029,
      "khaki": 2030,
      "Gu": 2031,
      "also": 2032,
      "paved": 2033,
      "singer": 2034,
      "cane": 2035,
      "including": 2036,
      "center": 2037,
      "fting": 2038,
      "erman": 2039,
      "meet": 2040,
      "These": 2041,
      "ggy": 2042,
      "saw": 2043,
      "button": 2044,
      "profession": 2045,
      "taken": 2046,
      "musician": 2047,
      "hula": 2048,
      "balcon": 2049,
      "square": 2050,
      "wrapped": 2051,
      "festival": 2052,
      "eats": 2053,
      "atting": 2054,
      "mel": 2055,
      "scu": 2056,
      "chest": 2057,
      "sail": 2058,
      "comple": 2059,
      "sheet": 2060,
      "wetsuit": 2061,
      "bin": 2062,
      "bro": 2063,
      "fer": 2064,
      "cold": 2065,
      "word": 2066,
      "curly": 2067,
      "ens": 2068,
      "whil": 2069,
      "groom": 2070,
      "jean": 2071,
      "brush": 2072,
      "finger": 2073,
      "ire": 2074,
      "hose": 2075,
      "bicyclist": 2076,
      "cast": 2077,
      "crosswalk": 2078,
      "nival": 2079,
      "whilst": 2080,
      "was": 2081,
      "flage": 2082,
      "flies": 2083,
      "skinned": 2084,
      "stunt": 2085,
      "camouflage": 2086,
      "fly": 2087,
      "hear": 2088,
      "ics": 2089,
      "poss": 2090,
      "tunnel": 2091,
      "tongue": 2092,
      "log": 2093,
      "backyard": 2094,
      "bandan": 2095,
      "vie": 2096,
      "marching": 2097,
      "points": 2098,
      "speaks": 2099,
      "hooded": 2100,
      "New": 2101,
      "stack": 2102,
      "rac": 2103,
      "blouse": 2104,
      "appro": 2105,
      "curb": 2106,
      "carnival": 2107,
      "golden": 2108,
      "keyboard": 2109,
      "Lad": 2110,
      "ung": 2111,
      "picking": 2112,
      "barbe": 2113,
      "females": 2114,
      "kicks": 2115,
      "club": 2116,
      "jam": 2117,
      "mural": 2118,
      "tar": 2119,
      "ophone": 2120,
      "vement": 2121,
      "opening": 2122,
      "whee": 2123,
      "denim": 2124,
      "Older": 2125,
      "pouring": 2126,
      "fir": 2127,
      "ides": 2128,
      "quet": 2129,
      "checking": 2130,
      "gives": 2131,
      "railroad": 2132,
      "Small": 2133,
      "eds": 2134,
      "polo": 2135,
      "tub": 2136,
      "tube": 2137,
      "raised": 2138,
      "Br": 2139,
      "nap": 2140,
      "shap": 2141,
      "airplane": 2142,
      "tiple": 2143,
      "pavement": 2144,
      "bage": 2145,
      "pian": 2146,
      "puddle": 2147,
      "help": 2148,
      "Dog": 2149,
      "bottom": 2150,
      "fant": 2151,
      "dancer": 2152,
      "colors": 2153,
      "entertain": 2154,
      "balcony": 2155,
      "fre": 2156,
      "pal": 2157,
      "spot": 2158,
      "za": 2159,
      "hitting": 2160,
      "stool": 2161,
      "bever": 2162,
      "beam": 2163,
      "runners": 2164,
      "shoe": 2165,
      "sleeps": 2166,
      "passes": 2167,
      "slides": 2168,
      "kers": 2169,
      "mop": 2170,
      "sel": 2171,
      "amer": 2172,
      "fast": 2173,
      "surface": 2174,
      "guitars": 2175,
      "exc": 2176,
      "refere": 2177,
      "trans": 2178,
      "bandanna": 2179,
      "ible": 2180,
      "ka": 2181,
      "knit": 2182,
      "ns": 2183,
      "att": 2184,
      "waterfall": 2185,
      "harness": 2186,
      "presentation": 2187,
      "On": 2188,
      "aw": 2189,
      "infant": 2190,
      "figu": 2191,
      "formation": 2192,
      "ina": 2193,
      "fix": 2194,
      "pony": 2195,
      "advertise": 2196,
      "ot": 2197,
      "war": 2198,
      "ze": 2199,
      "drives": 2200,
      "protective": 2201,
      "shooting": 2202,
      "touching": 2203,
      "piano": 2204,
      "overalls": 2205,
      "climber": 2206,
      "balancing": 2207,
      "Workers": 2208,
      "approach": 2209,
      "Co": 2210,
      "orient": 2211,
      "motorcycles": 2212,
      "laundry": 2213,
      "dling": 2214,
      "ei": 2215,
      "sition": 2216,
      "living": 2217,
      "seems": 2218,
      "wrestling": 2219,
      "pin": 2220,
      "inflat": 2221,
      "shar": 2222,
      "fabr": 2223,
      "writ": 2224,
      "aking": 2225,
      "fold": 2226,
      "ggage": 2227,
      "lines": 2228,
      "olding": 2229,
      "only": 2230,
      "slope": 2231,
      "boxing": 2232,
      "landscape": 2233,
      "rollersk": 2234,
      "oriental": 2235,
      "ilt": 2236,
      "puts": 2237,
      "flor": 2238,
      "stud": 2239,
      "surrounding": 2240,
      "rollerbla": 2241,
      "ized": 2242,
      "luggage": 2243,
      "ef": 2244,
      "if": 2245,
      "vil": 2246,
      "sewing": 2247,
      "local": 2248,
      "poles": 2249,
      "position": 2250,
      "skis": 2251,
      "swims": 2252,
      "inflatable": 2253,
      "lymp": 2254,
      "moves": 2255,
      "walls": 2256,
      "gymnast": 2257,
      "image": 2258,
      "mustach": 2259,
      "tou": 2260,
      "arrow": 2261,
      "itor": 2262,
      "iron": 2263,
      "peace": 2264,
      "paints": 2265,
      "floating": 2266,
      "enjoys": 2267,
      "monstr": 2268,
      "neckla": 2269,
      "rugby": 2270,
      "han": 2271,
      "test": 2272,
      "bath": 2273,
      "act": 2274,
      "pulls": 2275,
      "compan": 2276,
      "bars": 2277,
      "boun": 2278,
      "oppon": 2279,
      "rubb": 2280,
      "hay": 2281,
      "exer": 2282,
      "navy": 2283,
      "checkered": 2284,
      "scaffolding": 2285,
      "professional": 2286,
      "Lady": 2287,
      "referee": 2288,
      "cue": 2289,
      "da": 2290,
      "grind": 2291,
      "mode": 2292,
      "sport": 2293,
      "driver": 2294,
      "artment": 2295,
      "banner": 2296,
      "wheelchair": 2297,
      "goods": 2298,
      "teenagers": 2299,
      "White": 2300,
      "ext": 2301,
      "fans": 2302,
      "hound": 2303,
      "lid": 2304,
      "cot": 2305,
      "mpet": 2306,
      "magaz": 2307,
      "pajam": 2308,
      "formal": 2309,
      "tractor": 2310,
      "used": 2311,
      "swimsuit": 2312,
      "design": 2313,
      "akers": 2314,
      "shaving": 2315,
      "garbage": 2316,
      "patter": 2317,
      "care": 2318,
      "ging": 2319,
      "ged": 2320,
      "pit": 2321,
      "yo": 2322,
      "atten": 2323,
      "shade": 2324,
      "cobble": 2325,
      "pill": 2326,
      "demonstr": 2327,
      "teamm": 2328,
      "bank": 2329,
      "smoke": 2330,
      "reaches": 2331,
      "american": 2332,
      "exerc": 2333,
      "sum": 2334,
      "rece": 2335,
      "ited": 2336,
      "without": 2337,
      "crew": 2338,
      "staircase": 2339,
      "stretched": 2340,
      "belt": 2341,
      "fabric": 2342,
      "floral": 2343,
      "bread": 2344,
      "cone": 2345,
      "alk": 2346,
      "raft": 2347,
      "ried": 2348,
      "ently": 2349,
      "goalie": 2350,
      "Guy": 2351,
      "first": 2352,
      "spo": 2353,
      "escal": 2354,
      "eding": 2355,
      "lots": 2356,
      "sale": 2357,
      "cular": 2358,
      "chases": 2359,
      "AT": 2360,
      "Mo": 2361,
      "bending": 2362,
      "range": 2363,
      "toss": 2364,
      "shed": 2365,
      "juggling": 2366,
      "mobi": 2367,
      "haw": 2368,
      "plant": 2369,
      "birds": 2370,
      "hangs": 2371,
      "San": 2372,
      "oppo": 2373,
      "beg": 2374,
      "thrown": 2375,
      "apan": 2376,
      "boxes": 2377,
      "steep": 2378,
      "funny": 2379,
      "examining": 2380,
      "saxophone": 2381,
      "selves": 2382,
      "Ma": 2383,
      "bit": 2384,
      "stares": 2385,
      "arena": 2386,
      "shion": 2387,
      "rists": 2388,
      "bill": 2389,
      "riders": 2390,
      "guitarist": 2391,
      "themselves": 2392,
      "tory": 2393,
      "conversing": 2394,
      "either": 2395,
      "opposite": 2396,
      "oney": 2397,
      "bul": 2398,
      "bubble": 2399,
      "spa": 2400,
      "enga": 2401,
      "dium": 2402,
      "kiss": 2403,
      "cloudy": 2404,
      "shaped": 2405,
      "io": 2406,
      "ws": 2407,
      "irts": 2408,
      "chalk": 2409,
      "shoveling": 2410,
      "protest": 2411,
      "pitcher": 2412,
      "puppy": 2413,
      "fresh": 2414,
      "lunch": 2415,
      "hiker": 2416,
      "podium": 2417,
      "hawk": 2418,
      "York": 2419,
      "hers": 2420,
      "wad": 2421,
      "neon": 2422,
      "biking": 2423,
      "six": 2424,
      "trumpet": 2425,
      "serving": 2426,
      "Here": 2427,
      "bent": 2428,
      "flight": 2429,
      "robes": 2430,
      "pedestrians": 2431,
      "elf": 2432,
      "float": 2433,
      "firefight": 2434,
      "print": 2435,
      "jerseys": 2436,
      "inters": 2437,
      "soldier": 2438,
      "sco": 2439,
      "sne": 2440,
      "yhound": 2441,
      "inery": 2442,
      "char": 2443,
      "sprink": 2444,
      "shaking": 2445,
      "animals": 2446,
      "fingers": 2447,
      "hurdle": 2448,
      "racet": 2449,
      "mustache": 2450,
      "oustic": 2451,
      "lamp": 2452,
      "broom": 2453,
      "dio": 2454,
      "acoustic": 2455,
      "cere": 2456,
      "gged": 2457,
      "underwater": 2458,
      "towel": 2459,
      "polka": 2460,
      "drummer": 2461,
      "pajamas": 2462,
      "racetrack": 2463,
      "xed": 2464,
      "labor": 2465,
      "live": 2466,
      "snack": 2467,
      "corn": 2468,
      "pieces": 2469,
      "turned": 2470,
      "blocks": 2471,
      "lane": 2472,
      "container": 2473,
      "palm": 2474,
      "gas": 2475,
      "order": 2476,
      "heels": 2477,
      "carpet": 2478,
      "pull": 2479,
      "machinery": 2480,
      "porch": 2481,
      "gan": 2482,
      "money": 2483,
      "shown": 2484,
      "amuse": 2485,
      "wagon": 2486,
      "action": 2487,
      "tops": 2488,
      "cted": 2489,
      "ffy": 2490,
      "foreign": 2491,
      "caught": 2492,
      "suspended": 2493,
      "Blond": 2494,
      "escalator": 2495,
      "mobile": 2496,
      "herself": 2497,
      "em": 2498,
      "fle": 2499,
      "rout": 2500,
      "thumb": 2501,
      "chop": 2502,
      "gestu": 2503,
      "bucking": 2504,
      "siz": 2505,
      "practice": 2506,
      "candy": 2507,
      "athletic": 2508,
      "cling": 2509,
      "youth": 2510,
      "isher": 2511,
      "ribb": 2512,
      "liqu": 2513,
      "cones": 2514,
      "headband": 2515,
      "sheep": 2516,
      "sticking": 2517,
      "marketplace": 2518,
      "backpacks": 2519,
      "garb": 2520,
      "bottles": 2521,
      "tattoos": 2522,
      "visible": 2523,
      "member": 2524,
      "frame": 2525,
      "summer": 2526,
      "BM": 2527,
      "ech": 2528,
      "ection": 2529,
      "my": 2530,
      "backwards": 2531,
      "puck": 2532,
      "spital": 2533,
      "drive": 2534,
      "paren": 2535,
      "intersection": 2536,
      "amusement": 2537,
      "Japan": 2538,
      "hones": 2539,
      "oon": 2540,
      "iny": 2541,
      "motorbike": 2542,
      "observing": 2543,
      "ponytail": 2544,
      "Santa": 2545,
      "prop": 2546,
      "ising": 2547,
      "cked": 2548,
      "hospital": 2549,
      "tight": 2550,
      "haircut": 2551,
      "sets": 2552,
      "casian": 2553,
      "teacher": 2554,
      "weather": 2555,
      "hallway": 2556,
      "barbecue": 2557,
      "Ro": 2558,
      "ded": 2559,
      "ane": 2560,
      "erial": 2561,
      "unic": 2562,
      "socks": 2563,
      "tered": 2564,
      "paddling": 2565,
      "happily": 2566,
      "cheerleaders": 2567,
      "bling": 2568,
      "jects": 2569,
      "performers": 2570,
      "speak": 2571,
      "maroon": 2572,
      "laughs": 2573,
      "raising": 2574,
      "astern": 2575,
      "meeting": 2576,
      "Olymp": 2577,
      "cru": 2578,
      "narrow": 2579,
      "rance": 2580,
      "rests": 2581,
      "wild": 2582,
      "rier": 2583,
      "backs": 2584,
      "skirts": 2585,
      "jumpsuit": 2586,
      "bass": 2587,
      "things": 2588,
      "pige": 2589,
      "individual": 2590,
      "softball": 2591,
      "tools": 2592,
      "participating": 2593,
      "cyclists": 2594,
      "kni": 2595,
      "os": 2596,
      "twi": 2597,
      "zer": 2598,
      "dot": 2599,
      "leaf": 2600,
      "Girls": 2601,
      "opponent": 2602,
      "clap": 2603,
      "poster": 2604,
      "benches": 2605,
      "flowered": 2606,
      "athlete": 2607,
      "Fe": 2608,
      "St": 2609,
      "mis": 2610,
      "pping": 2611,
      "vo": 2612,
      "vac": 2613,
      "inspe": 2614,
      "plaza": 2615,
      "fris": 2616,
      "loc": 2617,
      "jockey": 2618,
      "borne": 2619,
      "celebrating": 2620,
      "At": 2621,
      "moun": 2622,
      "mound": 2623,
      "wire": 2624,
      "main": 2625,
      "muse": 2626,
      "kneels": 2627,
      "prin": 2628,
      "paddle": 2629,
      "shadow": 2630,
      "beverage": 2631,
      "sneakers": 2632,
      "ceremon": 2633,
      "routine": 2634,
      "punch": 2635,
      "sal": 2636,
      "xi": 2637,
      "cher": 2638,
      "gri": 2639,
      "amid": 2640,
      "wel": 2641,
      "parach": 2642,
      "bicyclists": 2643,
      "helps": 2644,
      "swimmer": 2645,
      "speech": 2646,
      "firetruck": 2647,
      "cook": 2648,
      "snowboarding": 2649,
      "chase": 2650,
      "computers": 2651,
      "leading": 2652,
      "relax": 2653,
      "chick": 2654,
      "excited": 2655,
      "advertisement": 2656,
      "necklace": 2657,
      "model": 2658,
      "cool": 2659,
      "trop": 2660,
      "retri": 2661,
      "blow": 2662,
      "airborne": 2663,
      "downtown": 2664,
      "rench": 2665,
      "fashion": 2666,
      "crosses": 2667,
      "carriage": 2668,
      "patio": 2669,
      "fenced": 2670,
      "greyhound": 2671,
      "museum": 2672,
      "German": 2673,
      "ibly": 2674,
      "airport": 2675,
      "tray": 2676,
      "stripes": 2677,
      "caps": 2678,
      "eleph": 2679,
      "homeless": 2680,
      "squatting": 2681,
      "cards": 2682,
      "egg": 2683,
      "mini": 2684,
      "shel": 2685,
      "coach": 2686,
      "sells": 2687,
      "ils": 2688,
      "pump": 2689,
      "cess": 2690,
      "teenager": 2691,
      "reflective": 2692,
      "customers": 2693,
      "BMX": 2694,
      "grilling": 2695,
      "african": 2696,
      "free": 2697,
      "hy": 2698,
      "thin": 2699,
      "recor": 2700,
      "tocross": 2701,
      "teal": 2702,
      "boarder": 2703,
      "ations": 2704,
      "barrel": 2705,
      "craft": 2706,
      "loading": 2707,
      "dep": 2708,
      "hikers": 2709,
      "ase": 2710,
      "redheaded": 2711,
      "been": 2712,
      "buying": 2713,
      "tery": 2714,
      "catcher": 2715,
      "born": 2716,
      "operating": 2717,
      "branch": 2718,
      "transport": 2719,
      "ahead": 2720,
      "power": 2721,
      "sword": 2722,
      "orn": 2723,
      "baskets": 2724,
      "note": 2725,
      "foc": 2726,
      "courtyard": 2727,
      "cheering": 2728,
      "Brown": 2729,
      "figure": 2730,
      "cobblestone": 2731,
      "frisbee": 2732,
      "cree": 2733,
      "ky": 2734,
      "tour": 2735,
      "ute": 2736,
      "chee": 2737,
      "silhou": 2738,
      "electron": 2739,
      "possibly": 2740,
      "Male": 2741,
      "Japanese": 2742,
      "bou": 2743,
      "biting": 2744,
      "ident": 2745,
      "forward": 2746,
      "neigh": 2747,
      "boardwalk": 2748,
      "sci": 2749,
      "pig": 2750,
      "welding": 2751,
      "smokes": 2752,
      "wheels": 2753,
      "patient": 2754,
      "brushing": 2755,
      "indoors": 2756,
      "mostly": 2757,
      "space": 2758,
      "Cr": 2759,
      "fisher": 2760,
      "you": 2761,
      "thnic": 2762,
      "blur": 2763,
      "sell": 2764,
      "ility": 2765,
      "tile": 2766,
      "tied": 2767,
      "Seven": 2768,
      "evening": 2769,
      "folding": 2770,
      "closeup": 2771,
      "college": 2772,
      "retrie": 2773,
      "clad": 2774,
      "pop": 2775,
      "pped": 2776,
      "win": 2777,
      "ye": 2778,
      "zen": 2779,
      "iss": 2780,
      "enti": 2781,
      "racer": 2782,
      "blows": 2783,
      "gravel": 2784,
      "dim": 2785,
      "smaller": 2786,
      "acting": 2787,
      "spinning": 2788,
      "balance": 2789,
      "rainbow": 2790,
      "bikers": 2791,
      "policeman": 2792,
      "aks": 2793,
      "est": 2794,
      "gown": 2795,
      "grand": 2796,
      "map": 2797,
      "simil": 2798,
      "handstand": 2799,
      "weight": 2800,
      "skateboards": 2801,
      "ously": 2802,
      "garage": 2803,
      "repairing": 2804,
      "scuba": 2805,
      "student": 2806,
      "villa": 2807,
      "sized": 2808,
      "neighbor": 2809,
      "similar": 2810,
      "20": 2811,
      "Stre": 2812,
      "rowing": 2813,
      "song": 2814,
      "vic": 2815,
      "tag": 2816,
      "carving": 2817,
      "carry": 2818,
      "odd": 2819,
      "motorcyclist": 2820,
      "compete": 2821,
      "item": 2822,
      "gentlemen": 2823,
      "sleeveless": 2824,
      "magazine": 2825,
      "attention": 2826,
      "Bu": 2827,
      "Ho": 2828,
      "gam": 2829,
      "hits": 2830,
      "lie": 2831,
      "lifting": 2832,
      "condu": 2833,
      "motion": 2834,
      "motocross": 2835,
      "doors": 2836,
      "barber": 2837,
      "express": 2838,
      "objects": 2839,
      "dump": 2840,
      "newborn": 2841,
      "sporting": 2842,
      "strange": 2843,
      "sofa": 2844,
      "follow": 2845,
      "pillow": 2846,
      "Che": 2847,
      "Lar": 2848,
      "Te": 2849,
      "ia": 2850,
      "rough": 2851,
      "ump": 2852,
      "unk": 2853,
      "fea": 2854,
      "pipes": 2855,
      "entrance": 2856,
      "chestra": 2857,
      "crossed": 2858,
      "balding": 2859,
      "point": 2860,
      "letes": 2861,
      "neighborhood": 2862,
      "jet": 2863,
      "stroll": 2864,
      "races": 2865,
      "doll": 2866,
      "come": 2867,
      "libr": 2868,
      "backdrop": 2869,
      "crane": 2870,
      "feeding": 2871,
      "pizz": 2872,
      "job": 2873,
      "naked": 2874,
      "displaying": 2875,
      "cial": 2876,
      "knees": 2877,
      "stove": 2878,
      "intently": 2879,
      "multiple": 2880,
      "soldiers": 2881,
      "viewing": 2882,
      "Street": 2883,
      "spark": 2884,
      "ica": 2885,
      "secon": 2886,
      "throom": 2887,
      "skates": 2888,
      "bathroom": 2889,
      "mom": 2890,
      "studio": 2891,
      "spread": 2892,
      "splashes": 2893,
      "raises": 2894,
      "liquid": 2895,
      "Large": 2896,
      "ig": 2897,
      "patch": 2898,
      "spi": 2899,
      "start": 2900,
      "aling": 2901,
      "orchestra": 2902,
      "iding": 2903,
      "rubs": 2904,
      "peri": 2905,
      "speed": 2906,
      "microphones": 2907,
      "rings": 2908,
      "amongst": 2909,
      "choir": 2910,
      "engers": 2911,
      "rubber": 2912,
      "Female": 2913,
      "bouquet": 2914,
      "Fire": 2915,
      "ax": 2916,
      "ethnic": 2917,
      "gall": 2918,
      "rows": 2919,
      "pee": 2920,
      "bushes": 2921,
      "words": 2922,
      "falls": 2923,
      "cardboard": 2924,
      "crouches": 2925,
      "creek": 2926,
      "Crowd": 2927,
      "bir": 2928,
      "hop": 2929,
      "ior": 2930,
      "ants": 2931,
      "organ": 2932,
      "adjust": 2933,
      "bean": 2934,
      "ceiling": 2935,
      "outstretched": 2936,
      "waist": 2937,
      "single": 2938,
      "confer": 2939,
      "headscarf": 2940,
      "deli": 2941,
      "ropes": 2942,
      "social": 2943,
      "wings": 2944,
      "tents": 2945,
      "photos": 2946,
      "ballet": 2947,
      "shaw": 2948,
      "stops": 2949,
      "control": 2950,
      "cricket": 2951,
      "sharing": 2952,
      "folded": 2953,
      "patterned": 2954,
      "library": 2955,
      "had": 2956,
      "ties": 2957,
      "handing": 2958,
      "exhi": 2959,
      "turning": 2960,
      "curity": 2961,
      "vehicles": 2962,
      "fruits": 2963,
      "buckets": 2964,
      "guns": 2965,
      "shoot": 2966,
      "super": 2967,
      "tackle": 2968,
      "gymnastic": 2969,
      "heart": 2970,
      "pigeons": 2971,
      "knife": 2972,
      "ai": 2973,
      "om": 2974,
      "sad": 2975,
      "sink": 2976,
      "ars": 2977,
      "loye": 2978,
      "watched": 2979,
      "pillar": 2980,
      "attempt": 2981,
      "medical": 2982,
      "dishes": 2983,
      "unicycle": 2984,
      "second": 2985,
      "native": 2986,
      "thday": 2987,
      "taxi": 2988,
      "locks": 2989,
      "push": 2990,
      "army": 2991,
      "uniformed": 2992,
      "colla": 2993,
      "lightly": 2994,
      "stopped": 2995,
      "cups": 2996,
      "pherd": 2997,
      "castle": 2998,
      "transportation": 2999,
      "conference": 3000,
      "emer": 3001,
      "now": 3002,
      "lip": 3003,
      "wake": 3004,
      "skater": 3005,
      "dig": 3006,
      "surg": 3007,
      "flops": 3008,
      "storefront": 3009,
      "dust": 3010,
      "muzz": 3011,
      "leaving": 3012,
      "photographs": 3013,
      "stretching": 3014,
      "billboard": 3015,
      "dread": 3016,
      "tro": 3017,
      "bene": 3018,
      "cuts": 3019,
      "sandwi": 3020,
      "plates": 3021,
      "vision": 3022,
      "directions": 3023,
      "ceremony": 3024,
      "elephant": 3025,
      "Pol": 3026,
      "dining": 3027,
      "sides": 3028,
      "baller": 3029,
      "tum": 3030,
      "jewel": 3031,
      "huddle": 3032,
      "wading": 3033,
      "ribbon": 3034,
      "beneath": 3035,
      "nur": 3036,
      "oc": 3037,
      "invol": 3038,
      "lear": 3039,
      "arch": 3040,
      "travel": 3041,
      "called": 3042,
      "mix": 3043,
      "dune": 3044,
      "complete": 3045,
      "thumbs": 3046,
      "birthday": 3047,
      "nu": 3048,
      "rural": 3049,
      "sack": 3050,
      "enger": 3051,
      "eter": 3052,
      "security": 3053,
      "tiv": 3054,
      "terrain": 3055,
      "boarding": 3056,
      "more": 3057,
      "suitcase": 3058,
      "photographed": 3059,
      "balances": 3060,
      "ungle": 3061,
      "parents": 3062,
      "electronic": 3063,
      "village": 3064,
      "jewelry": 3065,
      "nas": 3066,
      "pri": 3067,
      "reli": 3068,
      "apartment": 3069,
      "checks": 3070,
      "married": 3071,
      "horseback": 3072,
      "artwork": 3073,
      "Boys": 3074,
      "telephone": 3075,
      "pretty": 3076,
      "chicken": 3077,
      "collared": 3078,
      "dreadlocks": 3079,
      "City": 3080,
      "aqu": 3081,
      "ccer": 3082,
      "jungle": 3083,
      "oes": 3084,
      "ually": 3085,
      "tel": 3086,
      "carts": 3087,
      "gathers": 3088,
      "ways": 3089,
      "trim": 3090,
      "shops": 3091,
      "training": 3092,
      "Soccer": 3093,
      "vegetable": 3094,
      "engine": 3095,
      "discussion": 3096,
      "wheeled": 3097,
      "exercise": 3098,
      "Police": 3099,
      "12": 3100,
      "Cau": 3101,
      "aul": 3102,
      "ike": 3103,
      "isle": 3104,
      "tech": 3105,
      "placing": 3106,
      "tape": 3107,
      "ama": 3108,
      "downhill": 3109,
      "tially": 3110,
      "appl": 3111,
      "traveling": 3112,
      "colum": 3113,
      "hillside": 3114,
      "drawn": 3115,
      "calm": 3116,
      "straight": 3117,
      "butter": 3118,
      "employe": 3119,
      "kayaking": 3120,
      "tails": 3121,
      "shovels": 3122,
      "fisherman": 3123,
      "dimly": 3124,
      "pizza": 3125,
      "attra": 3126,
      "still": 3127,
      "bead": 3128,
      "upon": 3129,
      "brow": 3130,
      "bleach": 3131,
      "pies": 3132,
      "derby": 3133,
      "barrier": 3134,
      "name": 3135,
      "converse": 3136,
      "trailer": 3137,
      "observe": 3138,
      "fancy": 3139,
      "donkey": 3140,
      "Ar": 3141,
      "Lo": 3142,
      "every": 3143,
      "iddle": 3144,
      "lips": 3145,
      "tug": 3146,
      "joy": 3147,
      "passengers": 3148,
      "casual": 3149,
      "leads": 3150,
      "petting": 3151,
      "furry": 3152,
      "teaching": 3153,
      "broken": 3154,
      "attending": 3155,
      "teammate": 3156,
      "ATV": 3157,
      "ornate": 3158,
      "applying": 3159,
      "He": 3160,
      "Red": 3161,
      "kite": 3162,
      "slightly": 3163,
      "doctor": 3164,
      "share": 3165,
      "soda": 3166,
      "ilts": 3167,
      "overhead": 3168,
      "handle": 3169,
      "paras": 3170,
      "partially": 3171,
      "horiz": 3172,
      "gious": 3173,
      "crafts": 3174,
      "steel": 3175,
      "tattooed": 3176,
      "vacu": 3177,
      "She": 3178,
      "bad": 3179,
      "imp": 3180,
      "mit": 3181,
      "rons": 3182,
      "ues": 3183,
      "hirt": 3184,
      "stir": 3185,
      "stro": 3186,
      "seats": 3187,
      "buy": 3188,
      "aps": 3189,
      "apple": 3190,
      "cleans": 3191,
      "venue": 3192,
      "pottery": 3193,
      "niture": 3194,
      "crouching": 3195,
      "fluffy": 3196,
      "written": 3197,
      "spoon": 3198,
      "sprinkler": 3199,
      "expression": 3200,
      "Mar": 3201,
      "Spe": 3202,
      "US": 3203,
      "clay": 3204,
      "far": 3205,
      "gl": 3206,
      "ja": 3207,
      "lic": 3208,
      "pine": 3209,
      "tric": 3210,
      "ank": 3211,
      "though": 3212,
      "shaved": 3213,
      "calf": 3214,
      "wrestle": 3215,
      "turns": 3216,
      "candles": 3217,
      "clouds": 3218,
      "discussing": 3219,
      "grinding": 3220,
      "gers": 3221,
      "lean": 3222,
      "leot": 3223,
      "ald": 3224,
      "itors": 3225,
      "ety": 3226,
      "covers": 3227,
      "lion": 3228,
      "filling": 3229,
      "contest": 3230,
      "quick": 3231,
      "dusk": 3232,
      "factory": 3233,
      "rainy": 3234,
      "flipping": 3235,
      "furniture": 3236,
      "assem": 3237,
      "camping": 3238,
      "customer": 3239,
      "awning": 3240,
      "Caucasian": 3241,
      "leotard": 3242,
      "mill": 3243,
      "slack": 3244,
      "tes": 3245,
      "chan": 3246,
      "chess": 3247,
      "section": 3248,
      "dive": 3249,
      "torch": 3250,
      "tower": 3251,
      "numbers": 3252,
      "gymnas": 3253,
      "mixing": 3254,
      "television": 3255,
      "fencing": 3256,
      "advertising": 3257,
      "great": 3258,
      "tourists": 3259,
      "engaged": 3260,
      "clapping": 3261,
      "religious": 3262,
      "bleachers": 3263,
      "tricycle": 3264,
      "gymnasium": 3265,
      "bby": 3266,
      "bends": 3267,
      "eastern": 3268,
      "iff": 3269,
      "lets": 3270,
      "theater": 3271,
      "comes": 3272,
      "enders": 3273,
      "merch": 3274,
      "creating": 3275,
      "banan": 3276,
      "clut": 3277,
      "batter": 3278,
      "protesting": 3279,
      "paddles": 3280,
      "splash": 3281,
      "follows": 3282,
      "bundle": 3283,
      "Jo": 3284,
      "cul": 3285,
      "loung": 3286,
      "mor": 3287,
      "chinese": 3288,
      "opes": 3289,
      "hoops": 3290,
      "activ": 3291,
      "cape": 3292,
      "coloring": 3293,
      "surfs": 3294,
      "starting": 3295,
      "bbing": 3296,
      "trunk": 3297,
      "assist": 3298,
      "following": 3299,
      "comm": 3300,
      "branches": 3301,
      "inspecting": 3302,
      "cheek": 3303,
      "games": 3304,
      "sandwich": 3305,
      "slacks": 3306,
      "En": 3307,
      "fat": 3308,
      "oud": 3309,
      "licking": 3310,
      "cage": 3311,
      "bricks": 3312,
      "drill": 3313,
      "duck": 3314,
      "cooks": 3315,
      "elev": 3316,
      "examines": 3317,
      "trashcan": 3318,
      "tourist": 3319,
      "gymnastics": 3320,
      "Mul": 3321,
      "cro": 3322,
      "kit": 3323,
      "kilt": 3324,
      "spar": 3325,
      "ware": 3326,
      "ldo": 3327,
      "tex": 3328,
      "logo": 3329,
      "larger": 3330,
      "cameras": 3331,
      "horn": 3332,
      "athletes": 3333,
      "spraying": 3334,
      "yoga": 3335,
      "bulldo": 3336,
      "pumpk": 3337,
      "Ad": 3338,
      "call": 3339,
      "vas": 3340,
      "ino": 3341,
      "stall": 3342,
      "placed": 3343,
      "und": 3344,
      "world": 3345,
      "tured": 3346,
      "tuxed": 3347,
      "boards": 3348,
      "scre": 3349,
      "scra": 3350,
      "fake": 3351,
      "dead": 3352,
      "came": 3353,
      "hug": 3354,
      "cello": 3355,
      "craw": 3356,
      "listen": 3357,
      "glove": 3358,
      "portra": 3359,
      "reflection": 3360,
      "weaving": 3361,
      "houses": 3362,
      "flute": 3363,
      "charac": 3364,
      "gestures": 3365,
      "amidst": 3366,
      "tropical": 3367,
      "Foo": 3368,
      "Middle": 3369,
      "ain": 3370,
      "fit": 3371,
      "stones": 3372,
      "tea": 3373,
      "ador": 3374,
      "belly": 3375,
      "seas": 3376,
      "mass": 3377,
      "crown": 3378,
      "swimmers": 3379,
      "fireman": 3380,
      "material": 3381,
      "closely": 3382,
      "laptops": 3383,
      "story": 3384,
      "bino": 3385,
      "firefighters": 3386,
      "Can": 3387,
      "bound": 3388,
      "nam": 3389,
      "pins": 3390,
      "inten": 3391,
      "reg": 3392,
      "hip": 3393,
      "stare": 3394,
      "played": 3395,
      "urope": 3396,
      "seven": 3397,
      "lighting": 3398,
      "gradu": 3399,
      "sive": 3400,
      "moment": 3401,
      "ctors": 3402,
      "stripe": 3403,
      "brief": 3404,
      "whom": 3405,
      "firemen": 3406,
      "nighttime": 3407,
      "masks": 3408,
      "wheelbar": 3409,
      "kisses": 3410,
      "listens": 3411,
      "scenic": 3412,
      "variety": 3413,
      "binocular": 3414,
      "It": 3415,
      "Run": 3416,
      "done": 3417,
      "dough": 3418,
      "sor": 3419,
      "stance": 3420,
      "rod": 3421,
      "mechan": 3422,
      "coaster": 3423,
      "sniff": 3424,
      "ately": 3425,
      "ondon": 3426,
      "shorel": 3427,
      "couples": 3428,
      "opens": 3429,
      "casually": 3430,
      "tires": 3431,
      "circular": 3432,
      "groceries": 3433,
      "carefully": 3434,
      "recei": 3435,
      "missing": 3436,
      "beanie": 3437,
      "shoreline": 3438,
      "Eld": 3439,
      "Tou": 3440,
      "cla": 3441,
      "ists": 3442,
      "link": 3443,
      "nature": 3444,
      "arn": 3445,
      "ised": 3446,
      "ounge": 3447,
      "chatting": 3448,
      "peers": 3449,
      "hotel": 3450,
      "cep": 3451,
      "loom": 3452,
      "fier": 3453,
      "jumped": 3454,
      "tripo": 3455,
      "auto": 3456,
      "forehead": 3457,
      "desc": 3458,
      "hugs": 3459,
      "scenery": 3460,
      "seem": 3461,
      "practices": 3462,
      "observes": 3463,
      "pours": 3464,
      "crouched": 3465,
      "rolled": 3466,
      "wheelie": 3467,
      "silhouette": 3468,
      "Don": 3469,
      "Sk": 3470,
      "aisle": 3471,
      "pir": 3472,
      "poo": 3473,
      "rally": 3474,
      "ings": 3475,
      "ouble": 3476,
      "ided": 3477,
      "raz": 3478,
      "tired": 3479,
      "bris": 3480,
      "mail": 3481,
      "pale": 3482,
      "poor": 3483,
      "indu": 3484,
      "moder": 3485,
      "ental": 3486,
      "def": 3487,
      "colate": 3488,
      "chewing": 3489,
      "pathway": 3490,
      "messy": 3491,
      "rapids": 3492,
      "izing": 3493,
      "touches": 3494,
      "supp": 3495,
      "puppies": 3496,
      "participate": 3497,
      "centr": 3498,
      "rollerblading": 3499,
      "pigtails": 3500,
      "umpire": 3501,
      "Multiple": 3502,
      "Football": 3503,
      "Music": 3504,
      "cop": 3505,
      "wares": 3506,
      "rear": 3507,
      "arc": 3508,
      "mane": 3509,
      "ets": 3510,
      "coll": 3511,
      "grabbing": 3512,
      "tiled": 3513,
      "juice": 3514,
      "saying": 3515,
      "merous": 3516,
      "human": 3517,
      "displays": 3518,
      "flips": 3519,
      "scarves": 3520,
      "pads": 3521,
      "presents": 3522,
      "bowls": 3523,
      "notes": 3524,
      "skinny": 3525,
      "comfor": 3526,
      "waterski": 3527,
      "approaching": 3528,
      "tossing": 3529,
      "parachute": 3530,
      "gallery": 3531,
      "Coup": 3532,
      "Le": 3533,
      "London": 3534,
      "Mc": 3535,
      "cong": 3536,
      "iet": 3537,
      "tiny": 3538,
      "lecture": 3539,
      "almost": 3540,
      "wig": 3541,
      "lifts": 3542,
      "groups": 3543,
      "bron": 3544,
      "defen": 3545,
      "panic": 3546,
      "camel": 3547,
      "march": 3548,
      "nail": 3549,
      "passenger": 3550,
      "boxer": 3551,
      "newly": 3552,
      "chocolate": 3553,
      "moped": 3554,
      "rollerskating": 3555,
      "adjusting": 3556,
      "quickly": 3557,
      "binoculars": 3558,
      "Snow": 3559,
      "bite": 3560,
      "oven": 3561,
      "yarn": 3562,
      "sters": 3563,
      "alco": 3564,
      "cker": 3565,
      "pay": 3566,
      "inder": 3567,
      "overweight": 3568,
      "snowshoes": 3569,
      "build": 3570,
      "sunlight": 3571,
      "spon": 3572,
      "nament": 3573,
      "canvas": 3574,
      "serve": 3575,
      "ities": 3576,
      "vendors": 3577,
      "shades": 3578,
      "shadows": 3579,
      "examine": 3580,
      "celebration": 3581,
      "embrace": 3582,
      "spotted": 3583,
      "teammates": 3584,
      "chalkboard": 3585,
      "feather": 3586,
      "tumn": 3587,
      "wheelbarrow": 3588,
      "supplies": 3589,
      "Stu": 3590,
      "Wi": 3591,
      "cans": 3592,
      "fed": 3593,
      "ied": 3594,
      "ption": 3595,
      "sw": 3596,
      "viron": 3597,
      "environ": 3598,
      "oring": 3599,
      "pocket": 3600,
      "watermel": 3601,
      "scent": 3602,
      "dec": 3603,
      "stump": 3604,
      "sweeps": 3605,
      "experi": 3606,
      "hut": 3607,
      "sure": 3608,
      "turban": 3609,
      "cray": 3610,
      "nets": 3611,
      "fighters": 3612,
      "alleyway": 3613,
      "seagu": 3614,
      "lanter": 3615,
      "finished": 3616,
      "firefighter": 3617,
      "score": 3618,
      "printed": 3619,
      "exhibit": 3620,
      "tripod": 3621,
      "environment": 3622,
      "Be": 3623,
      "Bic": 3624,
      "De": 3625,
      "Eight": 3626,
      "Ped": 3627,
      "sat": 3628,
      "yell": 3629,
      "recl": 3630,
      "within": 3631,
      "chin": 3632,
      "racers": 3633,
      "rick": 3634,
      "built": 3635,
      "aming": 3636,
      "nequ": 3637,
      "ticket": 3638,
      "may": 3639,
      "silly": 3640,
      "handrail": 3641,
      "acro": 3642,
      "movie": 3643,
      "midst": 3644,
      "plu": 3645,
      "mouths": 3646,
      "bagpipes": 3647,
      "descent": 3648,
      "hills": 3649,
      "toddlers": 3650,
      "medium": 3651,
      "landing": 3652,
      "While": 3653,
      "embracing": 3654,
      "learning": 3655,
      "Europe": 3656,
      "Ha": 3657,
      "brace": 3658,
      "xy": 3659,
      "reme": 3660,
      "hift": 3661,
      "arter": 3662,
      "ata": 3663,
      "gest": 3664,
      "diver": 3665,
      "tutu": 3666,
      "frozen": 3667,
      "consi": 3668,
      "curt": 3669,
      "umber": 3670,
      "sleep": 3671,
      "rolls": 3672,
      "machines": 3673,
      "cooki": 3674,
      "wheeler": 3675,
      "stomach": 3676,
      "tooth": 3677,
      "milk": 3678,
      "shower": 3679,
      "makeshift": 3680,
      "products": 3681,
      "atory": 3682,
      "chainsaw": 3683,
      "rollerskates": 3684,
      "Mohawk": 3685,
      "fashioned": 3686,
      "eggs": 3687,
      "Elderly": 3688,
      "modern": 3689,
      "arcade": 3690,
      "Ba": 3691,
      "lounge": 3692,
      "oise": 3693,
      "tly": 3694,
      "valley": 3695,
      "zing": 3696,
      "inner": 3697,
      "mannequ": 3698,
      "itive": 3699,
      "opter": 3700,
      "icopter": 3701,
      "playfully": 3702,
      "separ": 3703,
      "lim": 3704,
      "crates": 3705,
      "bicy": 3706,
      "strip": 3707,
      "cute": 3708,
      "anging": 3709,
      "anges": 3710,
      "skiers": 3711,
      "shakes": 3712,
      "potat": 3713,
      "decorative": 3714,
      "begins": 3715,
      "twir": 3716,
      "ballerina": 3717,
      "butterfly": 3718,
      "alcoho": 3719,
      "DJ": 3720,
      "esting": 3721,
      "fic": 3722,
      "late": 3723,
      "rice": 3724,
      "trench": 3725,
      "wand": 3726,
      "zip": 3727,
      "aters": 3728,
      "wires": 3729,
      "admir": 3730,
      "tage": 3731,
      "soap": 3732,
      "dives": 3733,
      "strial": 3734,
      "cause": 3735,
      "quoise": 3736,
      "swimsuits": 3737,
      "underwear": 3738,
      "umin": 3739,
      "drib": 3740,
      "dusty": 3741,
      "interacting": 3742,
      "mess": 3743,
      "monkey": 3744,
      "loaded": 3745,
      "suspenders": 3746,
      "company": 3747,
      "Olympics": 3748,
      "notebook": 3749,
      "industrial": 3750,
      "Pedestrians": 3751,
      "admiring": 3752,
      "Fam": 3753,
      "SU": 3754,
      "Shirt": 3755,
      "bam": 3756,
      "elabor": 3757,
      "ument": 3758,
      "hike": 3759,
      "stle": 3760,
      "lacross": 3761,
      "oping": 3762,
      "owner": 3763,
      "semi": 3764,
      "tights": 3765,
      "bies": 3766,
      "divers": 3767,
      "perched": 3768,
      "feat": 3769,
      "scrubs": 3770,
      "debris": 3771,
      "split": 3772,
      "gift": 3773,
      "turquoise": 3774,
      "drag": 3775,
      "gency": 3776,
      "newspapers": 3777,
      "blankets": 3778,
      "estrian": 3779,
      "rolley": 3780,
      "Brit": 3781,
      "bouncing": 3782,
      "Cheer": 3783,
      "parasa": 3784,
      "camels": 3785,
      "portrait": 3786,
      "McDon": 3787,
      "bamboo": 3788,
      "amp": 3789,
      "cycle": 3790,
      "dad": 3791,
      "nun": 3792,
      "tho": 3793,
      "ora": 3794,
      "unus": 3795,
      "bush": 3796,
      "graph": 3797,
      "indian": 3798,
      "concentr": 3799,
      "cameraman": 3800,
      "interesting": 3801,
      "stairway": 3802,
      "brushes": 3803,
      "stretches": 3804,
      "brass": 3805,
      "knitting": 3806,
      "writes": 3807,
      "Teen": 3808,
      "Couple": 3809,
      "Students": 3810,
      "lacrosse": 3811,
      "10": 3812,
      "Mex": 3813,
      "Vari": 3814,
      "otic": 3815,
      "sla": 3816,
      "information": 3817,
      "stilts": 3818,
      "places": 3819,
      "cock": 3820,
      "amoun": 3821,
      "ney": 3822,
      "cargo": 3823,
      "aprons": 3824,
      "conven": 3825,
      "angel": 3826,
      "got": 3827,
      "flan": 3828,
      "helicopter": 3829,
      "trip": 3830,
      "mountainside": 3831,
      "appare": 3832,
      "give": 3833,
      "trucks": 3834,
      "praying": 3835,
      "rooftop": 3836,
      "hotdog": 3837,
      "wrestler": 3838,
      "scooters": 3839,
      "gazes": 3840,
      "cycling": 3841,
      "guards": 3842,
      "scaffold": 3843,
      "sailboat": 3844,
      "approaches": 3845,
      "rollerblades": 3846,
      "gesture": 3847,
      "speaker": 3848,
      "located": 3849,
      "bulldozer": 3850,
      "Baby": 3851,
      "chis": 3852,
      "dro": 3853,
      "gth": 3854,
      "hen": 3855,
      "ran": 3856,
      "trolley": 3857,
      "vaul": 3858,
      "legged": 3859,
      "andise": 3860,
      "chat": 3861,
      "ller": 3862,
      "comb": 3863,
      "buff": 3864,
      "wai": 3865,
      "surpr": 3866,
      "pedestrian": 3867,
      "cab": 3868,
      "gger": 3869,
      "motorized": 3870,
      "ducks": 3871,
      "packed": 3872,
      "highway": 3873,
      "shaggy": 3874,
      "monument": 3875,
      "teens": 3876,
      "leaders": 3877,
      "battle": 3878,
      "raption": 3879,
      "contraption": 3880,
      "tackled": 3881,
      "candle": 3882,
      "images": 3883,
      "lifted": 3884,
      "pinata": 3885,
      "sharp": 3886,
      "bathtub": 3887,
      "demonstration": 3888,
      "Olympic": 3889,
      "axe": 3890,
      "beads": 3891,
      "merchandise": 3892,
      "lounging": 3893,
      "Skate": 3894,
      "acrobat": 3895,
      "Various": 3896,
      "Ori": 3897,
      "Wal": 3898,
      "bould": 3899,
      "glid": 3900,
      "ious": 3901,
      "mower": 3902,
      "were": 3903,
      "launch": 3904,
      "wife": 3905,
      "tomat": 3906,
      "ray": 3907,
      "sele": 3908,
      "limb": 3909,
      "smoo": 3910,
      "tiger": 3911,
      "elder": 3912,
      "quarter": 3913,
      "fishes": 3914,
      "polish": 3915,
      "curve": 3916,
      "strapped": 3917,
      "homemade": 3918,
      "burning": 3919,
      "support": 3920,
      "pretending": 3921,
      "figures": 3922,
      "followed": 3923,
      "surgery": 3924,
      "pumpkin": 3925,
      "Tourists": 3926,
      "Band": 3927,
      "Po": 3928,
      "TV": 3929,
      "bend": 3930,
      "find": 3931,
      "mmed": 3932,
      "sear": 3933,
      "vily": 3934,
      "wrist": 3935,
      "ord": 3936,
      "ersby": 3937,
      "belong": 3938,
      "handling": 3939,
      "constru": 3940,
      "mohawk": 3941,
      "workshop": 3942,
      "ational": 3943,
      "jogs": 3944,
      "service": 3945,
      "imon": 3946,
      "splashed": 3947,
      "displayed": 3948,
      "direct": 3949,
      "harvest": 3950,
      "champ": 3951,
      "sledding": 3952,
      "heavily": 3953,
      "entertaining": 3954,
      "demonstrating": 3955,
      "mounta": 3956,
      "punching": 3957,
      "Canad": 3958,
      "briefcase": 3959,
      "maneu": 3960,
      "Pro": 3961,
      "Squ": 3962,
      "double": 3963,
      "lin": 3964,
      "mate": 3965,
      "rin": 3966,
      "sen": 3967,
      "usi": 3968,
      "won": 3969,
      "thusi": 3970,
      "level": 3971,
      "hiding": 3972,
      "ought": 3973,
      "plain": 3974,
      "unity": 3975,
      "shining": 3976,
      "shiny": 3977,
      "sidelines": 3978,
      "jumper": 3979,
      "turt": 3980,
      "lasso": 3981,
      "acc": 3982,
      "goat": 3983,
      "flowing": 3984,
      "cabin": 3985,
      "autumn": 3986,
      "crosscountry": 3987,
      "planting": 3988,
      "policemen": 3989,
      "breakdancing": 3990,
      "gundy": 3991,
      "artists": 3992,
      "sleeves": 3993,
      "beret": 3994,
      "burgundy": 3995,
      "containing": 3996,
      "posters": 3997,
      "farmer": 3998,
      "washer": 3999,
      "extreme": 4000,
      "science": 4001,
      "2012": 4002,
      "Adul": 4003,
      "SUV": 4004,
      "nat": 4005,
      "enthusi": 4006,
      "will": 4007,
      "change": 4008,
      "icans": 4009,
      "lime": 4010,
      "grab": 4011,
      "pots": 4012,
      "bib": 4013,
      "snowball": 4014,
      "headdress": 4015,
      "vig": 4016,
      "colorfully": 4017,
      "mart": 4018,
      "shepherd": 4019,
      "banjo": 4020,
      "foli": 4021,
      "stoop": 4022,
      "stocking": 4023,
      "clearing": 4024,
      "containers": 4025,
      "chefs": 4026,
      "bottoms": 4027,
      "stringed": 4028,
      "studying": 4029,
      "cotton": 4030,
      "location": 4031,
      "scienti": 4032,
      "Cheerleaders": 4033,
      "Square": 4034,
      "Bas": 4035,
      "Base": 4036,
      "aerial": 4037,
      "kimon": 4038,
      "tas": 4039,
      "tying": 4040,
      "zard": 4041,
      "legging": 4042,
      "orm": 4043,
      "ically": 4044,
      "adju": 4045,
      "rifle": 4046,
      "love": 4047,
      "bystand": 4048,
      "keys": 4049,
      "elds": 4050,
      "scopes": 4051,
      "Asians": 4052,
      "cheese": 4053,
      "underground": 4054,
      "mountainous": 4055,
      "barric": 4056,
      "marble": 4057,
      "marked": 4058,
      "competitive": 4059,
      "monitor": 4060,
      "statues": 4061,
      "entering": 4062,
      "wrestlers": 4063,
      "stepping": 4064,
      "target": 4065,
      "beverages": 4066,
      "attend": 4067,
      "laboratory": 4068,
      "driveway": 4069,
      "miniature": 4070,
      "shawl": 4071,
      "attractive": 4072,
      "Army": 4073,
      "intense": 4074,
      "consisting": 4075,
      "elaborate": 4076,
      "Baseball": 4077,
      "adjusts": 4078,
      "His": 4079,
      "Mi": 4080,
      "Sur": 4081,
      "School": 4082,
      "ients": 4083,
      "kno": 4084,
      "scr": 4085,
      "uts": 4086,
      "vending": 4087,
      "than": 4088,
      "attack": 4089,
      "ider": 4090,
      "illa": 4091,
      "jud": 4092,
      "sna": 4093,
      "accompan": 4094,
      "picks": 4095,
      "jeep": 4096,
      "clock": 4097,
      "casting": 4098,
      "stuck": 4099,
      "Asia": 4100,
      "quiet": 4101,
      "sailing": 4102,
      "process": 4103,
      "apples": 4104,
      "slic": 4105,
      "skies": 4106,
      "highchair": 4107,
      "cellphones": 4108,
      "kicked": 4109,
      "brides": 4110,
      "presen": 4111,
      "businessman": 4112,
      "tran": 4113,
      "gazing": 4114,
      "laundro": 4115,
      "framed": 4116,
      "brother": 4117,
      "designs": 4118,
      "snacks": 4119,
      "chopping": 4120,
      "tournament": 4121,
      "identical": 4122,
      "blurry": 4123,
      "columns": 4124,
      "vacuum": 4125,
      "warehouse": 4126,
      "graduation": 4127,
      "pirate": 4128,
      "gesturing": 4129,
      "amount": 4130,
      "waiian": 4131,
      "leggings": 4132,
      "scratch": 4133,
      "laundromat": 4134,
      "Cu": 4135,
      "anti": 4136,
      "rele": 4137,
      "toi": 4138,
      "menu": 4139,
      "blood": 4140,
      "bell": 4141,
      "keep": 4142,
      "sideways": 4143,
      "snowsuit": 4144,
      "contemp": 4145,
      "tablecloth": 4146,
      "tender": 4147,
      "aud": 4148,
      "lighted": 4149,
      "nails": 4150,
      "fireworks": 4151,
      "aked": 4152,
      "skills": 4153,
      "disc": 4154,
      "boxers": 4155,
      "squats": 4156,
      "length": 4157,
      "circ": 4158,
      "washes": 4159,
      "tackling": 4160,
      "storm": 4161,
      "department": 4162,
      "socializing": 4163,
      "tuxedo": 4164,
      "toothbrush": 4165,
      "unusual": 4166,
      "flannel": 4167,
      "belongings": 4168,
      "presenting": 4169,
      "ado": 4170,
      "eas": 4171,
      "osk": 4172,
      "overs": 4173,
      "vin": 4174,
      "zens": 4175,
      "inis": 4176,
      "oranges": 4177,
      "ared": 4178,
      "asc": 4179,
      "adow": 4180,
      "meadow": 4181,
      "grabs": 4182,
      "somewhere": 4183,
      "topless": 4184,
      "strike": 4185,
      "whose": 4186,
      "daytime": 4187,
      "types": 4188,
      "even": 4189,
      "facial": 4190,
      "crashing": 4191,
      "kiosk": 4192,
      "decorations": 4193,
      "product": 4194,
      "Dogs": 4195,
      "operates": 4196,
      "projector": 4197,
      "festive": 4198,
      "repairs": 4199,
      "itorium": 4200,
      "reception": 4201,
      "hydr": 4202,
      "retriever": 4203,
      "supermarket": 4204,
      "involving": 4205,
      "crayons": 4206,
      "mannequin": 4207,
      "turtle": 4208,
      "auditorium": 4209,
      "Car": 4210,
      "Eastern": 4211,
      "Mon": 4212,
      "Re": 4213,
      "cows": 4214,
      "elding": 4215,
      "floo": 4216,
      "iP": 4217,
      "mur": 4218,
      "mist": 4219,
      "non": 4220,
      "plo": 4221,
      "sound": 4222,
      "zy": 4223,
      "oned": 4224,
      "ises": 4225,
      "meas": 4226,
      "mpy": 4227,
      "logs": 4228,
      "dressing": 4229,
      "bay": 4230,
      "babies": 4231,
      "termin": 4232,
      "handed": 4233,
      "sciss": 4234,
      "scaling": 4235,
      "staff": 4236,
      "cakes": 4237,
      "foods": 4238,
      "merry": 4239,
      "treat": 4240,
      "cases": 4241,
      "cowboys": 4242,
      "bikinis": 4243,
      "shape": 4244,
      "draw": 4245,
      "draped": 4246,
      "dragging": 4247,
      "skyline": 4248,
      "views": 4249,
      "bedroom": 4250,
      "letters": 4251,
      "China": 4252,
      "photographers": 4253,
      "harbor": 4254,
      "checked": 4255,
      "blazer": 4256,
      "cloud": 4257,
      "syn": 4258,
      "caucasian": 4259,
      "Blue": 4260,
      "tarp": 4261,
      "pattern": 4262,
      "cherry": 4263,
      "focus": 4264,
      "Hockey": 4265,
      "conductor": 4266,
      "employee": 4267,
      "Lots": 4268,
      "stroke": 4269,
      "bundled": 4270,
      "Runners": 4271,
      "poodle": 4272,
      "Hawaiian": 4273,
      "featuring": 4274,
      "Basket": 4275,
      "bridesma": 4276,
      "Bi": 4277,
      "Sp": 4278,
      "cil": 4279,
      "citi": 4280,
      "lining": 4281,
      "nown": 4282,
      "sque": 4283,
      "ull": 4284,
      "zone": 4285,
      "ingred": 4286,
      "thick": 4287,
      "histor": 4288,
      "opy": 4289,
      "icy": 4290,
      "peering": 4291,
      "blind": 4292,
      "beers": 4293,
      "vering": 4294,
      "fork": 4295,
      "tags": 4296,
      "upper": 4297,
      "waterway": 4298,
      "digs": 4299,
      "mock": 4300,
      "else": 4301,
      "floats": 4302,
      "marsh": 4303,
      "angle": 4304,
      "mug": 4305,
      "costumed": 4306,
      "versity": 4307,
      "foam": 4308,
      "illumin": 4309,
      "stars": 4310,
      "stem": 4311,
      "lands": 4312,
      "blocking": 4313,
      "electrical": 4314,
      "gaze": 4315,
      "suppor": 4316,
      "booths": 4317,
      "eyeglasses": 4318,
      "spotlight": 4319,
      "grinds": 4320,
      "magazines": 4321,
      "relaxes": 4322,
      "dumpster": 4323,
      "horizon": 4324,
      "activity": 4325,
      "yelling": 4326,
      "British": 4327,
      "Mexican": 4328,
      "Oriental": 4329,
      "Am": 4330,
      "Star": 4331,
      "avo": 4332,
      "eag": 4333,
      "fellow": 4334,
      "gue": 4335,
      "gning": 4336,
      "ials": 4337,
      "mbo": 4338,
      "eria": 4339,
      "ande": 4340,
      "ened": 4341,
      "ense": 4342,
      "rabb": 4343,
      "asking": 4344,
      "gry": 4345,
      "coast": 4346,
      "sees": 4347,
      "buried": 4348,
      "lock": 4349,
      "upward": 4350,
      "aphone": 4351,
      "signing": 4352,
      "handbag": 4353,
      "haul": 4354,
      "heading": 4355,
      "saur": 4356,
      "shoppers": 4357,
      "ague": 4358,
      "agne": 4359,
      "driven": 4360,
      "canal": 4361,
      "passersby": 4362,
      "serves": 4363,
      "series": 4364,
      "cigar": 4365,
      "interest": 4366,
      "letter": 4367,
      "visiting": 4368,
      "hotdogs": 4369,
      "campfire": 4370,
      "farmers": 4371,
      "advertisements": 4372,
      "extended": 4373,
      "ATM": 4374,
      "protesters": 4375,
      "Roller": 4376,
      "focused": 4377,
      "blurred": 4378,
      "victory": 4379,
      "emergency": 4380,
      "nurse": 4381,
      "browsing": 4382,
      "Spect": 4383,
      "characters": 4384,
      "champagne": 4385,
      "foliage": 4386,
      "bystanders": 4387,
      "hydrant": 4388,
      "terminal": 4389,
      "scissors": 4390,
      "Kid": 4391,
      "Ru": 4392,
      "Sm": 4393,
      "Ski": 4394,
      "Shop": 4395,
      "Uni": 4396,
      "esta": 4397,
      "harm": 4398,
      "mx": 4399,
      "roo": 4400,
      "inju": 4401,
      "infl": 4402,
      "really": 4403,
      "arr": 4404,
      "sted": 4405,
      "earrings": 4406,
      "hoe": 4407,
      "blish": 4408,
      "cocon": 4409,
      "pauses": 4410,
      "They": 4411,
      "skull": 4412,
      "overlooks": 4413,
      "crop": 4414,
      "pushed": 4415,
      "fields": 4416,
      "uslim": 4417,
      "panish": 4418,
      "ffs": 4419,
      "expla": 4420,
      "stores": 4421,
      "noon": 4422,
      "instructor": 4423,
      "clothed": 4424,
      "pointed": 4425,
      "afternoon": 4426,
      "numbered": 4427,
      "arium": 4428,
      "shelf": 4429,
      "Firefighters": 4430,
      "digital": 4431,
      "aquarium": 4432,
      "Shepherd": 4433,
      "bananas": 4434,
      "Family": 4435,
      "Shirtless": 4436,
      "surprised": 4437,
      "transit": 4438,
      "ingredients": 4439,
      "Spectators": 4440,
      "establish": 4441,
      "Green": 4442,
      "Play": 4443,
      "Su": 4444,
      "bmx": 4445,
      "det": 4446,
      "iers": 4447,
      "mint": 4448,
      "olive": 4449,
      "tending": 4450,
      "zes": 4451,
      "inspect": 4452,
      "ero": 4453,
      "attered": 4454,
      "alt": 4455,
      "christmas": 4456,
      "whistle": 4457,
      "earphones": 4458,
      "raise": 4459,
      "text": 4460,
      "domin": 4461,
      "roses": 4462,
      "crate": 4463,
      "pictured": 4464,
      "unique": 4465,
      "samp": 4466,
      "saus": 4467,
      "purchase": 4468,
      "sweaters": 4469,
      "trains": 4470,
      "passed": 4471,
      "imes": 4472,
      "raincoat": 4473,
      "paintings": 4474,
      "temple": 4475,
      "filming": 4476,
      "butt": 4477,
      "burgers": 4478,
      "celebrate": 4479,
      "clowns": 4480,
      "symbo": 4481,
      "finishing": 4482,
      "chopsticks": 4483,
      "inspects": 4484,
      "bronco": 4485,
      "Canadian": 4486,
      "natural": 4487,
      "Hispanic": 4488,
      "harmon": 4489,
      "Col": 4490,
      "Gre": 4491,
      "Native": 4492,
      "eight": 4493,
      "gla": 4494,
      "nes": 4495,
      "osaur": 4496,
      "tv": 4497,
      "tread": 4498,
      "ison": 4499,
      "labe": 4500,
      "opo": 4501,
      "rot": 4502,
      "shirted": 4503,
      "riot": 4504,
      "paying": 4505,
      "posed": 4506,
      "jumpsuits": 4507,
      "ions": 4508,
      "purses": 4509,
      "tenance": 4510,
      "special": 4511,
      "gie": 4512,
      "desks": 4513,
      "eval": 4514,
      "motorcyclists": 4515,
      "paperwork": 4516,
      "casino": 4517,
      "draws": 4518,
      "prepared": 4519,
      "cigarettes": 4520,
      "chite": 4521,
      "dinosaur": 4522,
      "soft": 4523,
      "commer": 4524,
      "sprayed": 4525,
      "sheets": 4526,
      "barbecu": 4527,
      "bounce": 4528,
      "maintenance": 4529,
      "silhouet": 4530,
      "muzzle": 4531,
      "stirring": 4532,
      "morning": 4533,
      "community": 4534,
      "sorting": 4535,
      "sniffing": 4536,
      "receiving": 4537,
      "congreg": 4538,
      "buffet": 4539,
      "Skateboarder": 4540,
      "Smiling": 4541,
      "injured": 4542,
      "El": 4543,
      "We": 4544,
      "een": 4545,
      "igu": 4546,
      "ilies": 4547,
      "ske": 4548,
      "tin": 4549,
      "ular": 4550,
      "incl": 4551,
      "rew": 4552,
      "arri": 4553,
      "archite": 4554,
      "laid": 4555,
      "rafting": 4556,
      "holid": 4557,
      "unhappy": 4558,
      "lose": 4559,
      "tips": 4560,
      "upwards": 4561,
      "paci": 4562,
      "fied": 4563,
      "apart": 4564,
      "bathe": 4565,
      "crops": 4566,
      "personnel": 4567,
      "eyed": 4568,
      "spir": 4569,
      "themed": 4570,
      "climbers": 4571,
      "tribal": 4572,
      "flock": 4573,
      "speeds": 4574,
      "bartender": 4575,
      "drilling": 4576,
      "marker": 4577,
      "tical": 4578,
      "hardwood": 4579,
      "medi": 4580,
      "harp": 4581,
      "lush": 4582,
      "Motor": 4583,
      "freshly": 4584,
      "recording": 4585,
      "employees": 4586,
      "razor": 4587,
      "waterskiing": 4588,
      "European": 4589,
      "curtain": 4590,
      "twirling": 4591,
      "McDonald": 4592,
      "directly": 4593,
      "mountainto": 4594,
      "harmonica": 4595,
      "holiday": 4596,
      "Au": 4597,
      "Ara": 4598,
      "Mother": 4599,
      "NY": 4600,
      "Sold": 4601,
      "clar": 4602,
      "eper": 4603,
      "hon": 4604,
      "haps": 4605,
      "rd": 4606,
      "rof": 4607,
      "when": 4608,
      "yer": 4609,
      "yon": 4610,
      "remo": 4611,
      "ston": 4612,
      "raking": 4613,
      "grasp": 4614,
      "tiles": 4615,
      "skaters": 4616,
      "persons": 4617,
      "perhaps": 4618,
      "conne": 4619,
      "pilot": 4620,
      "dyed": 4621,
      "deer": 4622,
      "flop": 4623,
      "ished": 4624,
      "marking": 4625,
      "flaming": 4626,
      "aker": 4627,
      "garment": 4628,
      "steam": 4629,
      "photographing": 4630,
      "lens": 4631,
      "waiter": 4632,
      "waitress": 4633,
      "dryer": 4634,
      "zzy": 4635,
      "India": 4636,
      "chief": 4637,
      "shoots": 4638,
      "quest": 4639,
      "puppet": 4640,
      "stunts": 4641,
      "racquet": 4642,
      "begin": 4643,
      "bites": 4644,
      "youths": 4645,
      "parent": 4646,
      "surgical": 4647,
      "seagulls": 4648,
      "boulder": 4649,
      "enthusia": 4650,
      "contempl": 4651,
      "Basketball": 4652,
      "establishment": 4653,
      "commercial": 4654,
      "Art": 4655,
      "Bar": 4656,
      "Bus": 4657,
      "Ca": 4658,
      "Cow": 4659,
      "Dark": 4660,
      "Ex": 4661,
      "Fa": 4662,
      "Li": 4663,
      "Loo": 4664,
      "Photo": 4665,
      "South": 4666,
      "dam": 4667,
      "found": 4668,
      "hun": 4669,
      "rit": 4670,
      "uting": 4671,
      "vent": 4672,
      "inet": 4673,
      "erness": 4674,
      "hips": 4675,
      "strollers": 4676,
      "alle": 4677,
      "gee": 4678,
      "grown": 4679,
      "beat": 4680,
      "ries": 4681,
      "ami": 4682,
      "backseat": 4683,
      "scri": 4684,
      "scouts": 4685,
      "piles": 4686,
      "offering": 4687,
      "workout": 4688,
      "striking": 4689,
      "looked": 4690,
      "surfers": 4691,
      "much": 4692,
      "cession": 4693,
      "suburban": 4694,
      "viewed": 4695,
      "fetch": 4696,
      "protection": 4697,
      "lower": 4698,
      "portable": 4699,
      "visor": 4700,
      "resid": 4701,
      "kayaks": 4702,
      "chips": 4703,
      "contents": 4704,
      "partici": 4705,
      "khakis": 4706,
      "hurdles": 4707,
      "utes": 4708,
      "cheerleader": 4709,
      "cleaner": 4710,
      "completing": 4711,
      "stacked": 4712,
      "entertains": 4713,
      "pillows": 4714,
      "spots": 4715,
      "beginning": 4716,
      "ribbons": 4717,
      "wilderness": 4718,
      "depic": 4719,
      "feathers": 4720,
      "peeking": 4721,
      "horizont": 4722,
      "screaming": 4723,
      "rickshaw": 4724,
      "potato": 4725,
      "alcohol": 4726,
      "quarterback": 4727,
      "Protest": 4728,
      "snake": 4729,
      "antique": 4730,
      "labeled": 4731,
      "opoly": 4732,
      "pacifier": 4733,
      "11": 4734,
      "awaiting": 4735,
      "gress": 4736,
      "hunch": 4737,
      "sme": 4738,
      "sash": 4739,
      "swords": 4740,
      "var": 4741,
      "vine": 4742,
      "regi": 4743,
      "these": 4744,
      "stin": 4745,
      "last": 4746,
      "icle": 4747,
      "asph": 4748,
      "reddish": 4749,
      "sored": 4750,
      "bring": 4751,
      "juggles": 4752,
      "fill": 4753,
      "ruins": 4754,
      "bie": 4755,
      "fel": 4756,
      "puzz": 4757,
      "goate": 4758,
      "roadway": 4759,
      "progress": 4760,
      "exiting": 4761,
      "flames": 4762,
      "canopy": 4763,
      "bookstore": 4764,
      "dragon": 4765,
      "America": 4766,
      "classic": 4767,
      "forested": 4768,
      "rowboat": 4769,
      "stretch": 4770,
      "berry": 4771,
      "wrapping": 4772,
      "pencil": 4773,
      "barefooted": 4774,
      "system": 4775,
      "hooping": 4776,
      "belts": 4777,
      "warmly": 4778,
      "scular": 4779,
      "sailor": 4780,
      "stacks": 4781,
      "necklaces": 4782,
      "exercising": 4783,
      "flee": 4784,
      "mounted": 4785,
      "greyhounds": 4786,
      "record": 4787,
      "conducting": 4788,
      "unknown": 4789,
      "aiming": 4790,
      "pillars": 4791,
      "sparring": 4792,
      "named": 4793,
      "With": 4794,
      "lanterns": 4795,
      "bicycling": 4796,
      "convention": 4797,
      "toilet": 4798,
      "minton": 4799,
      "treadmill": 4800,
      "medieval": 4801,
      "mountaintop": 4802,
      "Protesters": 4803,
      "asphalt": 4804,
      "Cla": 4805,
      "Close": 4806,
      "Dan": 4807,
      "During": 4808,
      "Jenga": 4809,
      "Nu": 4810,
      "bon": 4811,
      "sling": 4812,
      "resc": 4813,
      "toe": 4814,
      "chron": 4815,
      "early": 4816,
      "dol": 4817,
      "siting": 4818,
      "because": 4819,
      "licks": 4820,
      "frying": 4821,
      "need": 4822,
      "grap": 4823,
      "timate": 4824,
      "ups": 4825,
      "fist": 4826,
      "bak": 4827,
      "snap": 4828,
      "snowman": 4829,
      "picket": 4830,
      "tures": 4831,
      "weed": 4832,
      "rocking": 4833,
      "metro": 4834,
      "cave": 4835,
      "cafet": 4836,
      "opened": 4837,
      "bowler": 4838,
      "package": 4839,
      "least": 4840,
      "monitors": 4841,
      "carrier": 4842,
      "official": 4843,
      "scales": 4844,
      "mixed": 4845,
      "vegetation": 4846,
      "lent": 4847,
      "golfer": 4848,
      "caution": 4849,
      "cries": 4850,
      "tosses": 4851,
      "propped": 4852,
      "jockeys": 4853,
      "vices": 4854,
      "sparks": 4855,
      "saddle": 4856,
      "completely": 4857,
      "aqua": 4858,
      "cluttered": 4859,
      "texting": 4860,
      "mechanical": 4861,
      "sponsored": 4862,
      "fedora": 4863,
      "experiment": 4864,
      "separate": 4865,
      "apparen": 4866,
      "accident": 4867,
      "Adults": 4868,
      "adole": 4869,
      "vintage": 4870,
      "rescue": 4871,
      "cafeteria": 4872,
      "Gen": 4873,
      "Muslim": 4874,
      "Per": 4875,
      "Todd": 4876,
      "fol": 4877,
      "gant": 4878,
      "mble": 4879,
      "noo": 4880,
      "national": 4881,
      "ox": 4882,
      "tish": 4883,
      "alth": 4884,
      "identi": 4885,
      "ramid": 4886,
      "peach": 4887,
      "uphill": 4888,
      "paws": 4889,
      "watering": 4890,
      "greenery": 4891,
      "tuba": 4892,
      "weap": 4893,
      "sundress": 4894,
      "guide": 4895,
      "spins": 4896,
      "boogie": 4897,
      "jog": 4898,
      "explo": 4899,
      "applies": 4900,
      "flash": 4901,
      "cler": 4902,
      "dried": 4903,
      "navig": 4904,
      "install": 4905,
      "fireplace": 4906,
      "served": 4907,
      "nightclub": 4908,
      "riverbank": 4909,
      "raining": 4910,
      "substance": 4911,
      "messa": 4912,
      "plank": 4913,
      "proud": 4914,
      "rails": 4915,
      "breaking": 4916,
      "scale": 4917,
      "checkers": 4918,
      "countryside": 4919,
      "hammock": 4920,
      "cattle": 4921,
      "alloween": 4922,
      "pyramid": 4923,
      "greet": 4924,
      "crib": 4925,
      "cheerleading": 4926,
      "beams": 4927,
      "cottish": 4928,
      "dotted": 4929,
      "mixer": 4930,
      "numerous": 4931,
      "badminton": 4932,
      "USA": 4933,
      "banana": 4934,
      "fatigu": 4935,
      "elevator": 4936,
      "crawling": 4937,
      "watermelon": 4938,
      "bracelet": 4939,
      "smooth": 4940,
      "task": 4941,
      "Miami": 4942,
      "Custo": 4943,
      "murky": 4944,
      "illuminated": 4945,
      "enthusiastic": 4946,
      "hunched": 4947,
      "Claus": 4948,
      "Closeup": 4949,
      "bakery": 4950,
      "Par": 4951,
      "Swim": 4952,
      "Spanish": 4953,
      "Ten": 4954,
      "deter": 4955,
      "fell": 4956,
      "gor": 4957,
      "jor": 4958,
      "powd": 4959,
      "uming": 4960,
      "thought": 4961,
      "outing": 4962,
      "ladd": 4963,
      "enclosed": 4964,
      "orted": 4965,
      "iderman": 4966,
      "rag": 4967,
      "doctors": 4968,
      "pep": 4969,
      "peak": 4970,
      "admi": 4971,
      "illed": 4972,
      "polit": 4973,
      "waterfront": 4974,
      "sket": 4975,
      "nearly": 4976,
      "piggy": 4977,
      "weird": 4978,
      "surge": 4979,
      "parka": 4980,
      "mentary": 4981,
      "roadside": 4982,
      "ggle": 4983,
      "whole": 4984,
      "expl": 4985,
      "desser": 4986,
      "muscular": 4987,
      "bows": 4988,
      "serious": 4989,
      "facility": 4990,
      "mascot": 4991,
      "shake": 4992,
      "fog": 4993,
      "itement": 4994,
      "butcher": 4995,
      "steering": 4996,
      "gardening": 4997,
      "braided": 4998,
      "includes": 4999,
      "collection": 5000,
      "bunny": 5001,
      "bungee": 5002,
      "picker": 5003,
      "complex": 5004,
      "excitement": 5005,
      "salon": 5006,
      "trophy": 5007,
      "spike": 5008,
      "lipstick": 5009,
      "involved": 5010,
      "travels": 5011,
      "vacuuming": 5012,
      "Musicians": 5013,
      "dribbles": 5014,
      "accompanied": 5015,
      "bridesmaids": 5016,
      "squee": 5017,
      "goatee": 5018,
      "dolph": 5019,
      "fatigues": 5020,
      "Fri": 5021,
      "Hi": 5022,
      "Mil": 5023,
      "Number": 5024,
      "Tra": 5025,
      "av": 5026,
      "broad": 5027,
      "dande": 5028,
      "eo": 5029,
      "eled": 5030,
      "hn": 5031,
      "iled": 5032,
      "lor": 5033,
      "olymp": 5034,
      "pong": 5035,
      "soup": 5036,
      "tress": 5037,
      "years": 5038,
      "iner": 5039,
      "recent": 5040,
      "stal": 5041,
      "engage": 5042,
      "orke": 5043,
      "bored": 5044,
      "radio": 5045,
      "dolls": 5046,
      "redhead": 5047,
      "meg": 5048,
      "shine": 5049,
      "buggy": 5050,
      "lobby": 5051,
      "upset": 5052,
      "brant": 5053,
      "carouse": 5054,
      "baked": 5055,
      "snorke": 5056,
      "overpass": 5057,
      "diap": 5058,
      "feature": 5059,
      "accep": 5060,
      "scru": 5061,
      "goers": 5062,
      "spring": 5063,
      "sprin": 5064,
      "horns": 5065,
      "helmeted": 5066,
      "motorbikes": 5067,
      "floors": 5068,
      "Soon": 5069,
      "banners": 5070,
      "interact": 5071,
      "tural": 5072,
      "curren": 5073,
      "viewer": 5074,
      "chased": 5075,
      "stopping": 5076,
      "squir": 5077,
      "directing": 5078,
      "pets": 5079,
      "chip": 5080,
      "sprays": 5081,
      "canoes": 5082,
      "collecting": 5083,
      "fixes": 5084,
      "Cola": 5085,
      "sprinklers": 5086,
      "ordering": 5087,
      "cruise": 5088,
      "shelves": 5089,
      "occup": 5090,
      "archway": 5091,
      "assemble": 5092,
      "swan": 5093,
      "xyl": 5094,
      "cookie": 5095,
      "innertube": 5096,
      "slam": 5097,
      "Walmart": 5098,
      "harvesting": 5099,
      "senior": 5100,
      "releas": 5101,
      "circuit": 5102,
      "interested": 5103,
      "inflated": 5104,
      "silhouetted": 5105,
      "clarinet": 5106,
      "Numerous": 5107,
      "chronized": 5108,
      "Toddler": 5109,
      "Customers": 5110,
      "piggyback": 5111,
      "carousel": 5112,
      "Ele": 5113,
      "Nike": 5114,
      "Out": 5115,
      "Park": 5116,
      "Times": 5117,
      "Un": 5118,
      "Vi": 5119,
      "Vol": 5120,
      "aband": 5121,
      "mal": 5122,
      "mowing": 5123,
      "inas": 5124,
      "anci": 5125,
      "league": 5126,
      "ara": 5127,
      "wiping": 5128,
      "chu": 5129,
      "earing": 5130,
      "earth": 5131,
      "shield": 5132,
      "shack": 5133,
      "shines": 5134,
      "lian": 5135,
      "frown": 5136,
      "ilted": 5137,
      "brand": 5138,
      "magn": 5139,
      "worn": 5140,
      "rush": 5141,
      "ridden": 5142,
      "sister": 5143,
      "simul": 5144,
      "cry": 5145,
      "cons": 5146,
      "feeds": 5147,
      "paralle": 5148,
      "pant": 5149,
      "flour": 5150,
      "strikes": 5151,
      "cav": 5152,
      "vibrant": 5153,
      "slow": 5154,
      "sline": 5155,
      "hilly": 5156,
      "canyon": 5157,
      "kickboxing": 5158,
      "clothesline": 5159,
      "cash": 5160,
      "foggy": 5161,
      "curved": 5162,
      "monk": 5163,
      "skyscra": 5164,
      "fountains": 5165,
      "squirt": 5166,
      "baton": 5167,
      "bloss": 5168,
      "refre": 5169,
      "mater": 5170,
      "multi": 5171,
      "diner": 5172,
      "sculpting": 5173,
      "operate": 5174,
      "hammering": 5175,
      "pickup": 5176,
      "Coca": 5177,
      "companion": 5178,
      "rubbing": 5179,
      "shelter": 5180,
      "huddled": 5181,
      "sacks": 5182,
      "technic": 5183,
      "activities": 5184,
      "adorned": 5185,
      "mailbox": 5186,
      "newlywed": 5187,
      "Snowboarder": 5188,
      "tomatoes": 5189,
      "maneuver": 5190,
      "barricade": 5191,
      "avoid": 5192,
      "Elmo": 5193,
      "incline": 5194,
      "varying": 5195,
      "megaphone": 5196,
      "Afr": 5197,
      "Chi": 5198,
      "Dis": 5199,
      "Ital": 5200,
      "Mark": 5201,
      "Nine": 5202,
      "Scottish": 5203,
      "To": 5204,
      "ale": 5205,
      "glan": 5206,
      "mouse": 5207,
      "mats": 5208,
      "oms": 5209,
      "san": 5210,
      "tw": 5211,
      "yawning": 5212,
      "zoo": 5213,
      "angry": 5214,
      "aring": 5215,
      "woven": 5216,
      "laden": 5217,
      "peer": 5218,
      "unfinished": 5219,
      "health": 5220,
      "reds": 5221,
      "memor": 5222,
      "shut": 5223,
      "solo": 5224,
      "fron": 5225,
      "bucks": 5226,
      "walked": 5227,
      "file": 5228,
      "sunbathing": 5229,
      "gular": 5230,
      "cityscape": 5231,
      "quad": 5232,
      "curi": 5233,
      "torn": 5234,
      "painter": 5235,
      "speeding": 5236,
      "barn": 5237,
      "barren": 5238,
      "sweatshirts": 5239,
      "flame": 5240,
      "shaves": 5241,
      "leader": 5242,
      "brea": 5243,
      "breast": 5244,
      "breakfast": 5245,
      "Grand": 5246,
      "grills": 5247,
      "burger": 5248,
      "blocked": 5249,
      "leashes": 5250,
      "videota": 5251,
      "braids": 5252,
      "microscopes": 5253,
      "kayaker": 5254,
      "utility": 5255,
      "dunk": 5256,
      "saxop": 5257,
      "chested": 5258,
      "napping": 5259,
      "opponents": 5260,
      "attentive": 5261,
      "bulance": 5262,
      "cheeks": 5263,
      "strolls": 5264,
      "period": 5265,
      "exhib": 5266,
      "nurses": 5267,
      "Lego": 5268,
      "maybe": 5269,
      "those": 5270,
      "scientist": 5271,
      "easel": 5272,
      "explaining": 5273,
      "Soldiers": 5274,
      "Friends": 5275,
      "materials": 5276,
      "Ap": 5277,
      "As": 5278,
      "Brun": 5279,
      "Bald": 5280,
      "Food": 5281,
      "Pat": 5282,
      "Pic": 5283,
      "Pass": 5284,
      "Sing": 5285,
      "Tex": 5286,
      "award": 5287,
      "aiss": 5288,
      "ever": 5289,
      "gently": 5290,
      "ights": 5291,
      "lon": 5292,
      "lish": 5293,
      "oil": 5294,
      "any": 5295,
      "threw": 5296,
      "real": 5297,
      "andom": 5298,
      "strolling": 5299,
      "ential": 5300,
      "oose": 5301,
      "icature": 5302,
      "unloading": 5303,
      "blower": 5304,
      "vertical": 5305,
      "ambulance": 5306,
      "tist": 5307,
      "walker": 5308,
      "major": 5309,
      "cara": 5310,
      "caricature": 5311,
      "forms": 5312,
      "forming": 5313,
      "formally": 5314,
      "ridge": 5315,
      "baggy": 5316,
      "tubes": 5317,
      "handles": 5318,
      "active": 5319,
      "entry": 5320,
      "stay": 5321,
      "headset": 5322,
      "goof": 5323,
      "surve": 5324,
      "dang": 5325,
      "strian": 5326,
      "cable": 5327,
      "speci": 5328,
      "typing": 5329,
      "capped": 5330,
      "cannon": 5331,
      "anged": 5332,
      "such": 5333,
      "turkey": 5334,
      "velin": 5335,
      "monks": 5336,
      "skydiving": 5337,
      "strap": 5338,
      "filmed": 5339,
      "border": 5340,
      "fetching": 5341,
      "medit": 5342,
      "fighter": 5343,
      "checkout": 5344,
      "deserted": 5345,
      "pensive": 5346,
      "nicely": 5347,
      "dropping": 5348,
      "patiently": 5349,
      "Bull": 5350,
      "trimming": 5351,
      "column": 5352,
      "handlebars": 5353,
      "crawls": 5354,
      "character": 5355,
      "massive": 5356,
      "descending": 5357,
      "watermelons": 5358,
      "cookies": 5359,
      "parasailing": 5360,
      "Teenag": 5361,
      "gliding": 5362,
      "kimono": 5363,
      "slicing": 5364,
      "seesaw": 5365,
      "University": 5366,
      "nesses": 5367,
      "connected": 5368,
      "register": 5369,
      "Military": 5370,
      "ancient": 5371,
      "parallel": 5372,
      "Brunette": 5373,
      "aissance": 5374,
      "Cyclists": 5375,
      "Go": 5376,
      "Gra": 5377,
      "Is": 5378,
      "Jew": 5379,
      "asting": 5380,
      "bout": 5381,
      "bats": 5382,
      "drying": 5383,
      "hus": 5384,
      "hops": 5385,
      "ile": 5386,
      "lat": 5387,
      "lun": 5388,
      "mus": 5389,
      "rou": 5390,
      "tends": 5391,
      "ula": 5392,
      "wit": 5393,
      "toes": 5394,
      "tote": 5395,
      "changing": 5396,
      "dots": 5397,
      "rose": 5398,
      "height": 5399,
      "grip": 5400,
      "ades": 5401,
      "soil": 5402,
      "buck": 5403,
      "bump": 5404,
      "ams": 5405,
      "mag": 5406,
      "carp": 5407,
      "carto": 5408,
      "sight": 5409,
      "handheld": 5410,
      "scattered": 5411,
      "closure": 5412,
      "parts": 5413,
      "suite": 5414,
      "sawing": 5415,
      "cusing": 5416,
      "elbow": 5417,
      "barking": 5418,
      "sweatpants": 5419,
      "coveralls": 5420,
      "creates": 5421,
      "tracksuit": 5422,
      "focusing": 5423,
      "prayer": 5424,
      "families": 5425,
      "preparation": 5426,
      "crazy": 5427,
      "rise": 5428,
      "seafood": 5429,
      "hook": 5430,
      "questrian": 5431,
      "campsite": 5432,
      "partner": 5433,
      "halter": 5434,
      "strings": 5435,
      "pressure": 5436,
      "possession": 5437,
      "demonstrates": 5438,
      "leafy": 5439,
      "prints": 5440,
      "chickens": 5441,
      "cooler": 5442,
      "similarly": 5443,
      "wakeboard": 5444,
      "muzzled": 5445,
      "ballerinas": 5446,
      "stirs": 5447,
      "clutching": 5448,
      "John": 5449,
      "elevated": 5450,
      "automobile": 5451,
      "synchronized": 5452,
      "barbecuing": 5453,
      "Gentle": 5454,
      "ladders": 5455,
      "political": 5456,
      "exploring": 5457,
      "Sooners": 5458,
      "abandoned": 5459,
      "13": 5460,
      "All": 5461,
      "Bob": 5462,
      "Cal": 5463,
      "Dirt": 5464,
      "Farm": 5465,
      "High": 5466,
      "Jack": 5467,
      "Lat": 5468,
      "Sc": 5469,
      "aboard": 5470,
      "cats": 5471,
      "drain": 5472,
      "eling": 5473,
      "french": 5474,
      "jar": 5475,
      "loud": 5476,
      "mates": 5477,
      "pt": 5478,
      "swa": 5479,
      "slip": 5480,
      "vor": 5481,
      "your": 5482,
      "instruction": 5483,
      "hic": 5484,
      "wool": 5485,
      "itself": 5486,
      "idated": 5487,
      "robot": 5488,
      "hore": 5489,
      "rimmed": 5490,
      "secu": 5491,
      "strewn": 5492,
      "bust": 5493,
      "ards": 5494,
      "tip": 5495,
      "keeper": 5496,
      "backstroke": 5497,
      "somebody": 5498,
      "somewhat": 5499,
      "formed": 5500,
      "sip": 5501,
      "overcoat": 5502,
      "terrier": 5503,
      "conf": 5504,
      "dye": 5505,
      "headgear": 5506,
      "struggling": 5507,
      "clip": 5508,
      "destin": 5509,
      "danger": 5510,
      "buses": 5511,
      "stries": 5512,
      "spin": 5513,
      "chews": 5514,
      "safe": 5515,
      "cubic": 5516,
      "skateboarders": 5517,
      "tane": 5518,
      "bands": 5519,
      "drivers": 5520,
      "gifts": 5521,
      "packages": 5522,
      "sucking": 5523,
      "ddling": 5524,
      "lapidated": 5525,
      "shave": 5526,
      "stern": 5527,
      "bridal": 5528,
      "rising": 5529,
      "distant": 5530,
      "padded": 5531,
      "mattress": 5532,
      "mime": 5533,
      "harnesses": 5534,
      "relay": 5535,
      "screens": 5536,
      "violins": 5537,
      "shaded": 5538,
      "blades": 5539,
      "campus": 5540,
      "kerchief": 5541,
      "celebrates": 5542,
      "dishwasher": 5543,
      "warming": 5544,
      "salad": 5545,
      "thinking": 5546,
      "retrieving": 5547,
      "Speed": 5548,
      "glish": 5549,
      "javelin": 5550,
      "English": 5551,
      "unders": 5552,
      "cept": 5553,
      "lantern": 5554,
      "Beautiful": 5555,
      "Surfer": 5556,
      "iPod": 5557,
      "measuring": 5558,
      "citizens": 5559,
      "floppy": 5560,
      "markings": 5561,
      "residential": 5562,
      "fleece": 5563,
      "Dancers": 5564,
      "xylophone": 5565,
      "simultane": 5566,
      "muscle": 5567,
      "Air": 5568,
      "Bear": 5569,
      "Gold": 5570,
      "Ice": 5571,
      "Mu": 5572,
      "Mac": 5573,
      "No": 5574,
      "Ob": 5575,
      "Race": 5576,
      "You": 5577,
      "Yellow": 5578,
      "ail": 5579,
      "equestrian": 5580,
      "flea": 5581,
      "hung": 5582,
      "sar": 5583,
      "wre": 5584,
      "inline": 5585,
      "removing": 5586,
      "enclosure": 5587,
      "wicker": 5588,
      "toast": 5589,
      "rafts": 5590,
      "allic": 5591,
      "rols": 5592,
      "unte": 5593,
      "unseen": 5594,
      "unison": 5595,
      "ading": 5596,
      "best": 5597,
      "tamb": 5598,
      "seeds": 5599,
      "loose": 5600,
      "upright": 5601,
      "rugs": 5602,
      "singers": 5603,
      "dilapidated": 5604,
      "tugging": 5605,
      "tulips": 5606,
      "acts": 5607,
      "actor": 5608,
      "moon": 5609,
      "scout": 5610,
      "guiding": 5611,
      "favor": 5612,
      "ffle": 5613,
      "pedals": 5614,
      "meter": 5615,
      "helped": 5616,
      "cashi": 5617,
      "armed": 5618,
      "sau": 5619,
      "purchasing": 5620,
      "basement": 5621,
      "winding": 5622,
      "windbreak": 5623,
      "excav": 5624,
      "create": 5625,
      "sheer": 5626,
      "teddy": 5627,
      "mule": 5628,
      "fuzzy": 5629,
      "smith": 5630,
      "wheat": 5631,
      "bodysuit": 5632,
      "likely": 5633,
      "cooked": 5634,
      "affe": 5635,
      "submer": 5636,
      "elegant": 5637,
      "snowboards": 5638,
      "Americans": 5639,
      "railway": 5640,
      "film": 5641,
      "films": 5642,
      "fetti": 5643,
      "seeming": 5644,
      "happening": 5645,
      "ize": 5646,
      "railings": 5647,
      "chains": 5648,
      "pitching": 5649,
      "langu": 5650,
      "balanced": 5651,
      "Worker": 5652,
      "rollerblader": 5653,
      "bouncy": 5654,
      "wades": 5655,
      "pigeon": 5656,
      "excitedly": 5657,
      "everywhere": 5658,
      "cultural": 5659,
      "communic": 5660,
      "kitten": 5661,
      "dribbling": 5662,
      "chisel": 5663,
      "acrobatic": 5664,
      "searching": 5665,
      "wonder": 5666,
      "stockings": 5667,
      "attendant": 5668,
      "scratching": 5669,
      "guests": 5670,
      "coconut": 5671,
      "sausages": 5672,
      "Father": 5673,
      "apparently": 5674,
      "Market": 5675,
      "Texas": 5676,
      "Jewish": 5677,
      "magic": 5678,
      "cartoon": 5679,
      "tambour": 5680,
      "Day": 5681,
      "Kore": 5682,
      "Long": 5683,
      "Lab": 5684,
      "Orange": 5685,
      "Spon": 5686,
      "bark": 5687,
      "lumber": 5688,
      "pans": 5689,
      "random": 5690,
      "wan": 5691,
      "wer": 5692,
      "wra": 5693,
      "zom": 5694,
      "thor": 5695,
      "repe": 5696,
      "rehear": 5697,
      "oncoming": 5698,
      "leop": 5699,
      "hikes": 5700,
      "thedr": 5701,
      "attle": 5702,
      "esus": 5703,
      "chet": 5704,
      "iders": 5705,
      "earmu": 5706,
      "icip": 5707,
      "dozen": 5708,
      "situ": 5709,
      "grima": 5710,
      "whiteboard": 5711,
      "riers": 5712,
      "fort": 5713,
      "seating": 5714,
      "som": 5715,
      "veil": 5716,
      "rusty": 5717,
      "sipping": 5718,
      "baking": 5719,
      "bably": 5720,
      "ongo": 5721,
      "confetti": 5722,
      "achi": 5723,
      "weeds": 5724,
      "weights": 5725,
      "stained": 5726,
      "closes": 5727,
      "devices": 5728,
      "metallic": 5729,
      "anticip": 5730,
      "cheers": 5731,
      "plow": 5732,
      "probably": 5733,
      "signal": 5734,
      "kiddie": 5735,
      "exotic": 5736,
      "vio": 5737,
      "trainer": 5738,
      "ashing": 5739,
      "wetsuits": 5740,
      "rict": 5741,
      "district": 5742,
      "squin": 5743,
      "milling": 5744,
      "styled": 5745,
      "sleds": 5746,
      "controls": 5747,
      "burn": 5748,
      "piercing": 5749,
      "teaches": 5750,
      "reflecting": 5751,
      "heavyset": 5752,
      "storage": 5753,
      "mopping": 5754,
      "designed": 5755,
      "floaties": 5756,
      "Rock": 5757,
      "crut": 5758,
      "attraction": 5759,
      "Marathon": 5760,
      "tuxedos": 5761,
      "collie": 5762,
      "pockets": 5763,
      "seagull": 5764,
      "selection": 5765,
      "flooded": 5766,
      "historic": 5767,
      "rabbits": 5768,
      "remote": 5769,
      "Cafe": 5770,
      "Cowboy": 5771,
      "graphic": 5772,
      "Legos": 5773,
      "husband": 5774,
      "simultaneously": 5775,
      "favorite": 5776,
      "cashier": 5777,
      "wraps": 5778,
      "leopard": 5779,
      "thedral": 5780,
      "earmuffs": 5781,
      "50": 5782,
      "French": 5783,
      "Hu": 5784,
      "Ok": 5785,
      "Rod": 5786,
      "Very": 5787,
      "Wor": 5788,
      "dge": 5789,
      "iously": 5790,
      "mou": 5791,
      "mbling": 5792,
      "pops": 5793,
      "swi": 5794,
      "winning": 5795,
      "anitor": 5796,
      "reve": 5797,
      "arrange": 5798,
      "array": 5799,
      "andex": 5800,
      "chore": 5801,
      "ook": 5802,
      "telling": 5803,
      "hoist": 5804,
      "geBob": 5805,
      "llip": 5806,
      "grins": 5807,
      "hispanic": 5808,
      "coal": 5809,
      "solid": 5810,
      "lollip": 5811,
      "amused": 5812,
      "carved": 5813,
      "rubble": 5814,
      "bale": 5815,
      "snowstorm": 5816,
      "snowcapped": 5817,
      "pub": 5818,
      "web": 5819,
      "sunhat": 5820,
      "goats": 5821,
      "panel": 5822,
      "roping": 5823,
      "casts": 5824,
      "cathedral": 5825,
      "spandex": 5826,
      "darkened": 5827,
      "trio": 5828,
      "prov": 5829,
      "corrid": 5830,
      "exit": 5831,
      "captured": 5832,
      "rounds": 5833,
      "flowery": 5834,
      "besides": 5835,
      "sumo": 5836,
      "passer": 5837,
      "bearing": 5838,
      "civi": 5839,
      "competes": 5840,
      "curling": 5841,
      "took": 5842,
      "breath": 5843,
      "carried": 5844,
      "stead": 5845,
      "squad": 5846,
      "intric": 5847,
      "porting": 5848,
      "paintbrush": 5849,
      "contin": 5850,
      "cyl": 5851,
      "contains": 5852,
      "strawberry": 5853,
      "commu": 5854,
      "sculptures": 5855,
      "profess": 5856,
      "kinds": 5857,
      "pretends": 5858,
      "Guys": 5859,
      "exercises": 5860,
      "carpeted": 5861,
      "liquor": 5862,
      "vocal": 5863,
      "princess": 5864,
      "ceremonial": 5865,
      "barrels": 5866,
      "Firemen": 5867,
      "hopping": 5868,
      "wakeboarding": 5869,
      "muzzles": 5870,
      "mitt": 5871,
      "undreds": 5872,
      "season": 5873,
      "receives": 5874,
      "defender": 5875,
      "cabinet": 5876,
      "hauling": 5877,
      "arranged": 5878,
      "buttons": 5879,
      "architecture": 5880,
      "ritual": 5881,
      "participants": 5882,
      "depicting": 5883,
      "puzzle": 5884,
      "adolescent": 5885,
      "message": 5886,
      "dessert": 5887,
      "features": 5888,
      "magnif": 5889,
      "Teenagers": 5890,
      "destination": 5891,
      "Bearded": 5892,
      "Golden": 5893,
      "SpongeBob": 5894,
      "sombr": 5895,
      "Ath": 5896,
      "For": 5897,
      "Hor": 5898,
      "Halloween": 5899,
      "Piz": 5900,
      "Prof": 5901,
      "ame": 5902,
      "avy": 5903,
      "await": 5904,
      "hour": 5905,
      "ience": 5906,
      "ister": 5907,
      "igan": 5908,
      "slot": 5909,
      "ured": 5910,
      "ann": 5911,
      "ret": 5912,
      "rect": 5913,
      "resp": 5914,
      "regate": 5915,
      "hides": 5916,
      "atula": 5917,
      "alike": 5918,
      "laven": 5919,
      "owling": 5920,
      "edges": 5921,
      "rake": 5922,
      "testing": 5923,
      "roman": 5924,
      "holes": 5925,
      "geese": 5926,
      "llie": 5927,
      "riotic": 5928,
      "bug": 5929,
      "lost": 5930,
      "locked": 5931,
      "downward": 5932,
      "smart": 5933,
      "keeping": 5934,
      "kemon": 5935,
      "backward": 5936,
      "hate": 5937,
      "greens": 5938,
      "appar": 5939,
      "overlook": 5940,
      "overcast": 5941,
      "div": 5942,
      "travers": 5943,
      "conver": 5944,
      "feed": 5945,
      "moss": 5946,
      "topped": 5947,
      "headscarves": 5948,
      "sunshine": 5949,
      "gum": 5950,
      "woodland": 5951,
      "pedal": 5952,
      "antily": 5953,
      "ggers": 5954,
      "spatula": 5955,
      "looker": 5956,
      "baseman": 5957,
      "pleas": 5958,
      "towed": 5959,
      "rounding": 5960,
      "bagpipe": 5961,
      "obscu": 5962,
      "given": 5963,
      "bears": 5964,
      "ddhi": 5965,
      "competitors": 5966,
      "wheelchairs": 5967,
      "protect": 5968,
      "docked": 5969,
      "artistic": 5970,
      "artific": 5971,
      "businessmen": 5972,
      "Groups": 5973,
      "cardigan": 5974,
      "hamburgers": 5975,
      "berty": 5976,
      "tackles": 5977,
      "tongs": 5978,
      "pretz": 5979,
      "donkeys": 5980,
      "sailboats": 5981,
      "surroundings": 5982,
      "daily": 5983,
      "cobbled": 5984,
      "billi": 5985,
      "tightrope": 5986,
      "elephants": 5987,
      "peeks": 5988,
      "delivery": 5989,
      "priest": 5990,
      "everyone": 5991,
      "jazz": 5992,
      "assisting": 5993,
      "kites": 5994,
      "congregate": 5995,
      "feathered": 5996,
      "reclining": 5997,
      "potatoes": 5998,
      "alcoholic": 5999,
      "messenger": 6000,
      "concentrating": 6001,
      "vaulting": 6002,
      "combat": 6003,
      "glider": 6004,
      "orders": 6005,
      "constructing": 6006,
      "extremely": 6007,
      "Monopoly": 6008,
      "Amish": 6009,
      "lettering": 6010,
      "Rollerblades": 6011,
      "Shoppers": 6012,
      "Players": 6013,
      "Arabic": 6014,
      "horizontal": 6015,
      "noodles": 6016,
      "dolphin": 6017,
      "diaper": 6018,
      "occupied": 6019,
      "chubby": 6020,
      "technician": 6021,
      "Disney": 6022,
      "memorial": 6023,
      "cubicle": 6024,
      "Obama": 6025,
      "windbreaker": 6026,
      "submerged": 6027,
      "language": 6028,
      "corridor": 6029,
      "respond": 6030,
      "lavender": 6031,
      "obscured": 6032,
      "Ber": 6033,
      "Cars": 6034,
      "Easter": 6035,
      "Mouse": 6036,
      "Ne": 6037,
      "Pi": 6038,
      "Wall": 6039,
      "Water": 6040,
      "awaits": 6041,
      "bowing": 6042,
      "bins": 6043,
      "cta": 6044,
      "drun": 6045,
      "ditch": 6046,
      "dental": 6047,
      "gur": 6048,
      "hine": 6049,
      "mming": 6050,
      "sari": 6051,
      "slab": 6052,
      "tling": 6053,
      "anke": 6054,
      "retail": 6055,
      "island": 6056,
      "wielding": 6057,
      "orary": 6058,
      "challen": 6059,
      "earbu": 6060,
      "icap": 6061,
      "playpen": 6062,
      "unidenti": 6063,
      "beating": 6064,
      "cob": 6065,
      "tact": 6066,
      "tagged": 6067,
      "vey": 6068,
      "keeps": 6069,
      "pamp": 6070,
      "pavi": 6071,
      "pastries": 6072,
      "pomp": 6073,
      "jugg": 6074,
      "someones": 6075,
      "blem": 6076,
      "size": 6077,
      "Ange": 6078,
      "trays": 6079,
      "crowds": 6080,
      "puffy": 6081,
      "headfirst": 6082,
      "closing": 6083,
      "demo": 6084,
      "guitarists": 6085,
      "ickey": 6086,
      "gnant": 6087,
      "quart": 6088,
      "cushion": 6089,
      "swimwear": 6090,
      "jogger": 6091,
      "tanned": 6092,
      "proced": 6093,
      "exits": 6094,
      "marina": 6095,
      "slopes": 6096,
      "agle": 6097,
      "agility": 6098,
      "bowtie": 6099,
      "competitor": 6100,
      "smock": 6101,
      "elementary": 6102,
      "straps": 6103,
      "crash": 6104,
      "better": 6105,
      "garments": 6106,
      "write": 6107,
      "steer": 6108,
      "Boston": 6109,
      "pairs": 6110,
      "ports": 6111,
      "directs": 6112,
      "resort": 6113,
      "cloths": 6114,
      "operation": 6115,
      "pulley": 6116,
      "pretend": 6117,
      "wineglasses": 6118,
      "appearing": 6119,
      "Ladies": 6120,
      "Onlookers": 6121,
      "pinned": 6122,
      "positioned": 6123,
      "engaging": 6124,
      "brooms": 6125,
      "vacation": 6126,
      "gowns": 6127,
      "Team": 6128,
      "emerges": 6129,
      "tromb": 6130,
      "techni": 6131,
      "mitten": 6132,
      "sorts": 6133,
      "sniffs": 6134,
      "bronze": 6135,
      "defensive": 6136,
      "sponge": 6137,
      "tickets": 6138,
      "splits": 6139,
      "tomato": 6140,
      "Sub": 6141,
      "symbols": 6142,
      "Motorcycle": 6143,
      "question": 6144,
      "bringing": 6145,
      "Perform": 6146,
      "recently": 6147,
      "assembled": 6148,
      "exhibition": 6149,
      "dangling": 6150,
      "Korean": 6151,
      "crutches": 6152,
      "professor": 6153,
      "apparat": 6154,
      "ddhist": 6155,
      "artificial": 6156,
      "procedure": 6157,
      "00": 6158,
      "Bike": 6159,
      "Cyclist": 6160,
      "Every": 6161,
      "Gray": 6162,
      "Happ": 6163,
      "La": 6164,
      "Over": 6165,
      "Ti": 6166,
      "cinder": 6167,
      "due": 6168,
      "hum": 6169,
      "jac": 6170,
      "janitor": 6171,
      "kn": 6172,
      "kilts": 6173,
      "pow": 6174,
      "pride": 6175,
      "punk": 6176,
      "quit": 6177,
      "vast": 6178,
      "vase": 6179,
      "yond": 6180,
      "onlooker": 6181,
      "lemon": 6182,
      "arched": 6183,
      "theme": 6184,
      "state": 6185,
      "ism": 6186,
      "rather": 6187,
      "shit": 6188,
      "shielding": 6189,
      "unit": 6190,
      "peoples": 6191,
      "addresses": 6192,
      "beyond": 6193,
      "cemet": 6194,
      "tax": 6195,
      "talent": 6196,
      "soaked": 6197,
      "loaf": 6198,
      "maker": 6199,
      "pail": 6200,
      "poking": 6201,
      "ressive": 6202,
      "brownish": 6203,
      "terior": 6204,
      "snowmobile": 6205,
      "percuss": 6206,
      "handicap": 6207,
      "condition": 6208,
      "concession": 6209,
      "convey": 6210,
      "scantily": 6211,
      "piled": 6212,
      "weigh": 6213,
      "offers": 6214,
      "struggles": 6215,
      "deal": 6216,
      "devil": 6217,
      "pancake": 6218,
      "shots": 6219,
      "cables": 6220,
      "brimmed": 6221,
      "armor": 6222,
      "antly": 6223,
      "chew": 6224,
      "sweep": 6225,
      "climbed": 6226,
      "towels": 6227,
      "Seg": 6228,
      "winds": 6229,
      "expan": 6230,
      "exchange": 6231,
      "captain": 6232,
      "skipping": 6233,
      "mush": 6234,
      "packing": 6235,
      "passion": 6236,
      "ortment": 6237,
      "ortant": 6238,
      "dden": 6239,
      "kneel": 6240,
      "starts": 6241,
      "starring": 6242,
      "crack": 6243,
      "rises": 6244,
      "batman": 6245,
      "battling": 6246,
      "protester": 6247,
      "gloved": 6248,
      "poncho": 6249,
      "surfboards": 6250,
      "shady": 6251,
      "trous": 6252,
      "hooked": 6253,
      "assortment": 6254,
      "superman": 6255,
      "leashed": 6256,
      "streamers": 6257,
      "guarding": 6258,
      "embraces": 6259,
      "participates": 6260,
      "coverings": 6261,
      "gondo": 6262,
      "fluore": 6263,
      "dunes": 6264,
      "dunking": 6265,
      "donations": 6266,
      "ferry": 6267,
      "knitted": 6268,
      "peaceful": 6269,
      "extends": 6270,
      "lamps": 6271,
      "tightly": 6272,
      "parachuting": 6273,
      "electronics": 6274,
      "fishermen": 6275,
      "popul": 6276,
      "popping": 6277,
      "sparklers": 6278,
      "organized": 6279,
      "impro": 6280,
      "ankle": 6281,
      "assembling": 6282,
      "tricycles": 6283,
      "culture": 6284,
      "lounges": 6285,
      "seashore": 6286,
      "bounds": 6287,
      "collide": 6288,
      "Bicyclists": 6289,
      "apparel": 6290,
      "kimonos": 6291,
      "judges": 6292,
      "oversized": 6293,
      "turtleneck": 6294,
      "ensemble": 6295,
      "dominoes": 6296,
      "Great": 6297,
      "grasping": 6298,
      "contemplating": 6299,
      "smelling": 6300,
      "Swimmers": 6301,
      "powder": 6302,
      "crystal": 6303,
      "curious": 6304,
      "breathing": 6305,
      "saxophones": 6306,
      "Picture": 6307,
      "Isra": 6308,
      "confused": 6309,
      "seemingly": 6310,
      "magnifying": 6311,
      "Pizza": 6312,
      "pamph": 6313,
      "apparatus": 6314,
      "cemetery": 6315,
      "percussion": 6316,
      "19": 6317,
      "30": 6318,
      "AR": 6319,
      "Aid": 6320,
      "Bal": 6321,
      "Big": 6322,
      "Braz": 6323,
      "DS": 6324,
      "East": 6325,
      "Fisher": 6326,
      "France": 6327,
      "HE": 6328,
      "Hell": 6329,
      "IN": 6330,
      "Jesus": 6331,
      "Light": 6332,
      "Mr": 6333,
      "Memb": 6334,
      "Sun": 6335,
      "Unit": 6336,
      "Ve": 6337,
      "War": 6338,
      "Washing": 6339,
      "cco": 6340,
      "ee": 6341,
      "emotion": 6342,
      "fter": 6343,
      "folder": 6344,
      "gal": 6345,
      "kward": 6346,
      "mined": 6347,
      "pear": 6348,
      "ral": 6349,
      "tend": 6350,
      "uish": 6351,
      "ustr": 6352,
      "veter": 6353,
      "welds": 6354,
      "year": 6355,
      "zed": 6356,
      "incoming": 6357,
      "anvil": 6358,
      "angular": 6359,
      "lem": 6360,
      "laho": 6361,
      "wigs": 6362,
      "orna": 6363,
      "escape": 6364,
      "chaps": 6365,
      "rad": 6366,
      "ico": 6367,
      "mental": 6368,
      "docu": 6369,
      "pel": 6370,
      "playhouse": 6371,
      "una": 6372,
      "geo": 6373,
      "meats": 6374,
      "beans": 6375,
      "girlfriend": 6376,
      "ripped": 6377,
      "comic": 6378,
      "tau": 6379,
      "solit": 6380,
      "soaking": 6381,
      "soars": 6382,
      "logy": 6383,
      "iler": 6384,
      "page": 6385,
      "pokes": 6386,
      "backhoe": 6387,
      "rum": 6388,
      "rustic": 6389,
      "index": 6390,
      "littered": 6391,
      "gain": 6392,
      "sill": 6393,
      "overturned": 6394,
      "handkerchief": 6395,
      "mber": 6396,
      "contact": 6397,
      "ultimate": 6398,
      "hau": 6399,
      "scared": 6400,
      "stain": 6401,
      "hairy": 6402,
      "hairnet": 6403,
      "delic": 6404,
      "suitcases": 6405,
      "studies": 6406,
      "boot": 6407,
      "sales": 6408,
      "join": 6409,
      "promo": 6410,
      "proje": 6411,
      "Seattle": 6412,
      "extra": 6413,
      "except": 6414,
      "aging": 6415,
      "noses": 6416,
      "dug": 6417,
      "skill": 6418,
      "skimpy": 6419,
      "disk": 6420,
      "lause": 6421,
      "stairwell": 6422,
      "mesh": 6423,
      "scary": 6424,
      "fourth": 6425,
      "dramat": 6426,
      "crab": 6427,
      "Christ": 6428,
      "potted": 6429,
      "graffitied": 6430,
      "squat": 6431,
      "patrol": 6432,
      "patriotic": 6433,
      "silk": 6434,
      "cutoff": 6435,
      "masked": 6436,
      "washed": 6437,
      "hammers": 6438,
      "sledge": 6439,
      "seaweed": 6440,
      "assorted": 6441,
      "violinist": 6442,
      "circles": 6443,
      "partly": 6444,
      "essional": 6445,
      "kayakers": 6446,
      "frames": 6447,
      "wineglass": 6448,
      "firing": 6449,
      "shapes": 6450,
      "transporting": 6451,
      "awkward": 6452,
      "ironing": 6453,
      "pitbull": 6454,
      "scoop": 6455,
      "knives": 6456,
      "State": 6457,
      "salmon": 6458,
      "parachutes": 6459,
      "records": 6460,
      "powerpoint": 6461,
      "focuses": 6462,
      "popcorn": 6463,
      "200": 6464,
      "Crowds": 6465,
      "delivering": 6466,
      "wakeboarder": 6467,
      "mixes": 6468,
      "important": 6469,
      "pumpkins": 6470,
      "adorable": 6471,
      "poodles": 6472,
      "defense": 6473,
      "reclines": 6474,
      "plush": 6475,
      "tutus": 6476,
      "curta": 6477,
      "cockpit": 6478,
      "chiseling": 6479,
      "Bikers": 6480,
      "rooster": 6481,
      "samples": 6482,
      "symbol": 6483,
      "skelet": 6484,
      "weapon": 6485,
      "navigates": 6486,
      "dandelion": 6487,
      "accepting": 6488,
      "scruffy": 6489,
      "currently": 6490,
      "mallet": 6491,
      "frowning": 6492,
      "Africans": 6493,
      "fronts": 6494,
      "Apple": 6495,
      "meditating": 6496,
      "dangerous": 6497,
      "Speedo": 6498,
      "saris": 6499,
      "Oklaho": 6500,
      "intricate": 6501,
      "earbuds": 6502,
      "juggler": 6503,
      "Subway": 6504,
      "Happy": 6505,
      "conveyor": 6506,
      "gondola": 6507,
      "fluorescent": 6508,
      "Washington": 6509,
      "Oklahoma": 6510,
      "25": 6511,
      "Bat": 6512,
      "Bare": 6513,
      "Fans": 6514,
      "Ford": 6515,
      "Guitar": 6516,
      "Kitchen": 6517,
      "MA": 6518,
      "Min": 6519,
      "Mountain": 6520,
      "Qu": 6521,
      "Ste": 6522,
      "Yanke": 6523,
      "aid": 6524,
      "aim": 6525,
      "ec": 6526,
      "ffel": 6527,
      "gent": 6528,
      "ifor": 6529,
      "kart": 6530,
      "kabo": 6531,
      "mops": 6532,
      "nder": 6533,
      "oar": 6534,
      "sons": 6535,
      "twin": 6536,
      "vation": 6537,
      "xim": 6538,
      "zoom": 6539,
      "erie": 6540,
      "reci": 6541,
      "leis": 6542,
      "alds": 6543,
      "ener": 6544,
      "itting": 6545,
      "owl": 6546,
      "chure": 6547,
      "earring": 6548,
      "tether": 6549,
      "icing": 6550,
      "iced": 6551,
      "union": 6552,
      "blown": 6553,
      "aside": 6554,
      "owners": 6555,
      "grin": 6556,
      "aded": 6557,
      "beagle": 6558,
      "shu": 6559,
      "ford": 6560,
      "sequ": 6561,
      "herd": 6562,
      "lizard": 6563,
      "stress": 6564,
      "buys": 6565,
      "illet": 6566,
      "grave": 6567,
      "maid": 6568,
      "master": 6569,
      "posts": 6570,
      "poised": 6571,
      "jug": 6572,
      "sions": 6573,
      "snaps": 6574,
      "snowbank": 6575,
      "access": 6576,
      "struggle": 6577,
      "strumming": 6578,
      "spending": 6579,
      "kettle": 6580,
      "darker": 6581,
      "pursu": 6582,
      "mingle": 6583,
      "barriers": 6584,
      "cords": 6585,
      "exe": 6586,
      "crest": 6587,
      "nia": 6588,
      "huts": 6589,
      "husky": 6590,
      "nyrd": 6591,
      "cartwheel": 6592,
      "faced": 6593,
      "mascara": 6594,
      "ringing": 6595,
      "monster": 6596,
      "planes": 6597,
      "dentist": 6598,
      "crafting": 6599,
      "ivan": 6600,
      "butch": 6601,
      "cluster": 6602,
      "bottled": 6603,
      "seeing": 6604,
      "kie": 6605,
      "flipped": 6606,
      "structures": 6607,
      "decorating": 6608,
      "strong": 6609,
      "lanes": 6610,
      "pengu": 6611,
      "canoeing": 6612,
      "drawings": 6613,
      "obstacles": 6614,
      "dunks": 6615,
      "professionals": 6616,
      "brochure": 6617,
      "stools": 6618,
      "zebra": 6619,
      "proper": 6620,
      "maintain": 6621,
      "Chef": 6622,
      "igator": 6623,
      "aims": 6624,
      "emerging": 6625,
      "occur": 6626,
      "beaded": 6627,
      "expressions": 6628,
      "glowing": 6629,
      "leotards": 6630,
      "mechanic": 6631,
      "descend": 6632,
      "Bicycle": 6633,
      "McDonalds": 6634,
      "limbs": 6635,
      "judge": 6636,
      "ascending": 6637,
      "blindfolded": 6638,
      "eagle": 6639,
      "rabbit": 6640,
      "damaged": 6641,
      "folk": 6642,
      "proudly": 6643,
      "greeting": 6644,
      "slowly": 6645,
      "refresh": 6646,
      "goofy": 6647,
      "Gentleman": 6648,
      "instructions": 6649,
      "undershirt": 6650,
      "actors": 6651,
      "zombie": 6652,
      "rehearsing": 6653,
      "Professional": 6654,
      "billiards": 6655,
      "pavilion": 6656,
      "powered": 6657,
      "Members": 6658,
      "ifornia": 6659,
      "Back": 6660,
      "Gy": 6661,
      "Je": 6662,
      "LE": 6663,
      "Pu": 6664,
      "Sa": 6665,
      "Ser": 6666,
      "Sports": 6667,
      "Vend": 6668,
      "Wa": 6669,
      "Well": 6670,
      "ails": 6671,
      "bone": 6672,
      "bree": 6673,
      "bones": 6674,
      "binder": 6675,
      "cs": 6676,
      "fid": 6677,
      "fine": 6678,
      "gir": 6679,
      "gby": 6680,
      "hack": 6681,
      "ier": 6682,
      "junk": 6683,
      "lla": 6684,
      "nine": 6685,
      "oam": 6686,
      "oke": 6687,
      "oars": 6688,
      "pun": 6689,
      "rish": 6690,
      "sli": 6691,
      "tation": 6692,
      "tilted": 6693,
      "ude": 6694,
      "vet": 6695,
      "vid": 6696,
      "wade": 6697,
      "welder": 6698,
      "ya": 6699,
      "inc": 6700,
      "inse": 6701,
      "hidden": 6702,
      "ands": 6703,
      "manip": 6704,
      "manual": 6705,
      "oul": 6706,
      "stride": 6707,
      "alia": 6708,
      "lamb": 6709,
      "entire": 6710,
      "chops": 6711,
      "raw": 6712,
      "rakes": 6713,
      "alligator": 6714,
      "pea": 6715,
      "shields": 6716,
      "wallet": 6717,
      "grinning": 6718,
      "addressing": 6719,
      "ghet": 6720,
      "beater": 6721,
      "beaker": 6722,
      "shined": 6723,
      "shrubs": 6724,
      "shouting": 6725,
      "como": 6726,
      "tap": 6727,
      "bucked": 6728,
      "locomo": 6729,
      "outcrop": 6730,
      "gram": 6731,
      "grain": 6732,
      "tible": 6733,
      "skillet": 6734,
      "greenhouse": 6735,
      "litter": 6736,
      "sips": 6737,
      "bales": 6738,
      "baker": 6739,
      "perfe": 6740,
      "conso": 6741,
      "scap": 6742,
      "bases": 6743,
      "guides": 6744,
      "woodworking": 6745,
      "metrop": 6746,
      "strips": 6747,
      "cago": 6748,
      "pregnant": 6749,
      "sauna": 6750,
      "flotation": 6751,
      "auty": 6752,
      "sleigh": 6753,
      "capri": 6754,
      "capture": 6755,
      "slung": 6756,
      "trek": 6757,
      "nothing": 6758,
      "phys": 6759,
      "canned": 6760,
      "pastry": 6761,
      "passage": 6762,
      "cellular": 6763,
      "lery": 6764,
      "bookbag": 6765,
      "shingles": 6766,
      "banks": 6767,
      "cier": 6768,
      "interior": 6769,
      "backpacker": 6770,
      "rains": 6771,
      "volunte": 6772,
      "snowboarders": 6773,
      "stoplight": 6774,
      "stetho": 6775,
      "ramps": 6776,
      "newsstand": 6777,
      "patrons": 6778,
      "function": 6779,
      "might": 6780,
      "drumsticks": 6781,
      "breakdancer": 6782,
      "portion": 6783,
      "resear": 6784,
      "hamburger": 6785,
      "mersaul": 6786,
      "attaching": 6787,
      "tunic": 6788,
      "projected": 6789,
      "friendly": 6790,
      "multicol": 6791,
      "profile": 6792,
      "fairy": 6793,
      "presses": 6794,
      "minivan": 6795,
      "drops": 6796,
      "sails": 6797,
      "possible": 6798,
      "entertainment": 6799,
      "warri": 6800,
      "writer": 6801,
      "extending": 6802,
      "cotch": 6803,
      "receive": 6804,
      "tossed": 6805,
      "punches": 6806,
      "blowtorch": 6807,
      "retrieves": 6808,
      "grandmother": 6809,
      "nude": 6810,
      "trimmed": 6811,
      "parasol": 6812,
      "merchant": 6813,
      "descends": 6814,
      "Wii": 6815,
      "bracelets": 6816,
      "convenience": 6817,
      "selecting": 6818,
      "smoothing": 6819,
      "constructed": 6820,
      "citizen": 6821,
      "historical": 6822,
      "Starbucks": 6823,
      "Rugby": 6824,
      "Color": 6825,
      "Greyhound": 6826,
      "Business": 6827,
      "installing": 6828,
      "determined": 6829,
      "admires": 6830,
      "surgeon": 6831,
      "Hikers": 6832,
      "olympics": 6833,
      "Eleven": 6834,
      "Outdoor": 6835,
      "View": 6836,
      "Italian": 6837,
      "hopscotch": 6838,
      "California": 6839,
      "clipboard": 6840,
      "tambourine": 6841,
      "squinting": 6842,
      "World": 6843,
      "revealing": 6844,
      "lollipop": 6845,
      "vocalist": 6846,
      "convertible": 6847,
      "pretzels": 6848,
      "ctacle": 6849,
      "unidentified": 6850,
      "Segway": 6851,
      "trousers": 6852,
      "United": 6853,
      "skeleton": 6854,
      "manipul": 6855,
      "Bride": 6856,
      "CE": 6857,
      "Cl": 6858,
      "Dal": 6859,
      "LA": 6860,
      "Mer": 6861,
      "Ninten": 6862,
      "Or": 6863,
      "Pre": 6864,
      "ST": 6865,
      "Sup": 6866,
      "Ta": 6867,
      "Ter": 6868,
      "agg": 6869,
      "could": 6870,
      "gated": 6871,
      "gates": 6872,
      "iors": 6873,
      "jab": 6874,
      "japan": 6875,
      "kin": 6876,
      "mind": 6877,
      "nin": 6878,
      "tter": 6879,
      "uk": 6880,
      "ution": 6881,
      "wers": 6882,
      "thread": 6883,
      "thouse": 6884,
      "rese": 6885,
      "repor": 6886,
      "return": 6887,
      "reviewing": 6888,
      "once": 6889,
      "anda": 6890,
      "anding": 6891,
      "itty": 6892,
      "chor": 6893,
      "whis": 6894,
      "dollar": 6895,
      "peaks": 6896,
      "bloom": 6897,
      "sites": 6898,
      "growing": 6899,
      "growling": 6900,
      "adjac": 6901,
      "beauty": 6902,
      "riage": 6903,
      "shr": 6904,
      "shrubb": 6905,
      "taste": 6906,
      "sews": 6907,
      "hero": 6908,
      "somersaul": 6909,
      "limo": 6910,
      "lions": 6911,
      "bud": 6912,
      "bulls": 6913,
      "graying": 6914,
      "walkers": 6915,
      "paw": 6916,
      "pause": 6917,
      "pover": 6918,
      "poker": 6919,
      "ressed": 6920,
      "watercraft": 6921,
      "gau": 6922,
      "gay": 6923,
      "sisters": 6924,
      "diam": 6925,
      "trave": 6926,
      "personal": 6927,
      "mothers": 6928,
      "scoring": 6929,
      "cert": 6930,
      "workman": 6931,
      "workmen": 6932,
      "workbench": 6933,
      "para": 6934,
      "fau": 6935,
      "suited": 6936,
      "ffles": 6937,
      "cass": 6938,
      "study": 6939,
      "spiderman": 6940,
      "ques": 6941,
      "quilt": 6942,
      "presu": 6943,
      "sands": 6944,
      "torches": 6945,
      "compo": 6946,
      "footbridge": 6947,
      "procession": 6948,
      "cord": 6949,
      "exterior": 6950,
      "marches": 6951,
      "windowsill": 6952,
      "nie": 6953,
      "pastel": 6954,
      "restaurants": 6955,
      "artic": 6956,
      "banquet": 6957,
      "gener": 6958,
      "stract": 6959,
      "classical": 6960,
      "stock": 6961,
      "matches": 6962,
      "squares": 6963,
      "landed": 6964,
      "audio": 6965,
      "stationary": 6966,
      "telescopes": 6967,
      "visit": 6968,
      "petals": 6969,
      "decoration": 6970,
      "berries": 6971,
      "Concert": 6972,
      "blade": 6973,
      "partying": 6974,
      "bookshel": 6975,
      "weaves": 6976,
      "finishes": 6977,
      "brothers": 6978,
      "posses": 6979,
      "harnessed": 6980,
      "waring": 6981,
      "warning": 6982,
      "Com": 6983,
      "bounces": 6984,
      "choppy": 6985,
      "Road": 6986,
      "saluting": 6987,
      "Buddhist": 6988,
      "travelers": 6989,
      "techno": 6990,
      "Local": 6991,
      "glides": 6992,
      "leaned": 6993,
      "assembly": 6994,
      "Eng": 6995,
      "crochet": 6996,
      "crowns": 6997,
      "region": 6998,
      "comfortable": 6999,
      "satche": 7000,
      "diverse": 7001,
      "concentrates": 7002,
      "Teenage": 7003,
      "Adult": 7004,
      "scratches": 7005,
      "Biker": 7006,
      "Spiderman": 7007,
      "supported": 7008,
      "eagerly": 7009,
      "Russ": 7010,
      "coconuts": 7011,
      "sample": 7012,
      "congregating": 7013,
      "arrive": 7014,
      "Looks": 7015,
      "bonfire": 7016,
      "flashlight": 7017,
      "enthusiastically": 7018,
      "Tennis": 7019,
      "gorilla": 7020,
      "squeezing": 7021,
      "sprints": 7022,
      "squirting": 7023,
      "skyscrapers": 7024,
      "Chicago": 7025,
      "attentively": 7026,
      "Singer": 7027,
      "carpenter": 7028,
      "Latin": 7029,
      "secured": 7030,
      "wanting": 7031,
      "announ": 7032,
      "drunk": 7033,
      "trombone": 7034,
      "Performers": 7035,
      "taxis": 7036,
      "mushroom": 7037,
      "solitary": 7038,
      "perfect": 7039,
      "stethoscope": 7040,
      "multicolor": 7041,
      "Nintendo": 7042,
      "adjacent": 7043,
      "shrubbery": 7044,
      "Al": 7045,
      "Cor": 7046,
      "Cap": 7047,
      "Clause": 7048,
      "Irish": 7049,
      "Mickey": 7050,
      "Naked": 7051,
      "Ra": 7052,
      "Ren": 7053,
      "Rac": 7054,
      "Sum": 7055,
      "What": 7056,
      "Wearing": 7057,
      "bbles": 7058,
      "bongo": 7059,
      "cis": 7060,
      "dre": 7061,
      "dren": 7062,
      "dart": 7063,
      "dorm": 7064,
      "gle": 7065,
      "jou": 7066,
      "mad": 7067,
      "olit": 7068,
      "ollie": 7069,
      "ply": 7070,
      "sour": 7071,
      "tide": 7072,
      "ule": 7073,
      "uten": 7074,
      "went": 7075,
      "wish": 7076,
      "wise": 7077,
      "yet": 7078,
      "invest": 7079,
      "recre": 7080,
      "lei": 7081,
      "hijab": 7082,
      "arma": 7083,
      "manic": 7084,
      "oupe": 7085,
      "attired": 7086,
      "states": 7087,
      "itation": 7088,
      "wizard": 7089,
      "boating": 7090,
      "rored": 7091,
      "host": 7092,
      "hovering": 7093,
      "heeled": 7094,
      "begging": 7095,
      "youngsters": 7096,
      "blacksmith": 7097,
      "cola": 7098,
      "codi": 7099,
      "sex": 7100,
      "seal": 7101,
      "sexy": 7102,
      "aircraft": 7103,
      "lives": 7104,
      "neat": 7105,
      "mably": 7106,
      "kept": 7107,
      "backlit": 7108,
      "fists": 7109,
      "fills": 7110,
      "rust": 7111,
      "rushing": 7112,
      "grounds": 7113,
      "ridding": 7114,
      "appla": 7115,
      "overn": 7116,
      "dili": 7117,
      "tram": 7118,
      "trap": 7119,
      "handful": 7120,
      "handmade": 7121,
      "elders": 7122,
      "pigs": 7123,
      "western": 7124,
      "worked": 7125,
      "rocker": 7126,
      "rocket": 7127,
      "performed": 7128,
      "pedaling": 7129,
      "metric": 7130,
      "vessel": 7131,
      "university": 7132,
      "chemic": 7133,
      "purchases": 7134,
      "sweet": 7135,
      "completes": 7136,
      "daylight": 7137,
      "windsurfing": 7138,
      "exhau": 7139,
      "sweaty": 7140,
      "slender": 7141,
      "forefront": 7142,
      "marriage": 7143,
      "captures": 7144,
      "appli": 7145,
      "footballer": 7146,
      "clers": 7147,
      "novel": 7148,
      "gig": 7149,
      "pharma": 7150,
      "descri": 7151,
      "fires": 7152,
      "anger": 7153,
      "duffel": 7154,
      "instructing": 7155,
      "suds": 7156,
      "bangs": 7157,
      "machet": 7158,
      "interviewed": 7159,
      "laps": 7160,
      "shoeshine": 7161,
      "foil": 7162,
      "curled": 7163,
      "drags": 7164,
      "onesie": 7165,
      "venture": 7166,
      "homework": 7167,
      "medals": 7168,
      "cupcakes": 7169,
      "steal": 7170,
      "batting": 7171,
      "protecting": 7172,
      "coura": 7173,
      "landscap": 7174,
      "mature": 7175,
      "rappe": 7176,
      "schoolgirls": 7177,
      "blank": 7178,
      "relaxed": 7179,
      "barely": 7180,
      "mirrored": 7181,
      "spraw": 7182,
      "fencers": 7183,
      "camper": 7184,
      "loads": 7185,
      "tune": 7186,
      "embro": 7187,
      "llywood": 7188,
      "mustard": 7189,
      "putt": 7190,
      "balconies": 7191,
      "completed": 7192,
      "hearts": 7193,
      "stacking": 7194,
      "naps": 7195,
      "referees": 7196,
      "fixed": 7197,
      "folds": 7198,
      "pajama": 7199,
      "ginger": 7200,
      "cereal": 7201,
      "leafless": 7202,
      "mount": 7203,
      "mainly": 7204,
      "retrieve": 7205,
      "issue": 7206,
      "oddly": 7207,
      "dollhouse": 7208,
      "spiked": 7209,
      "galloping": 7210,
      "supervis": 7211,
      "nuts": 7212,
      "crocodi": 7213,
      "fitting": 7214,
      "pirates": 7215,
      "defending": 7216,
      "defenders": 7217,
      "Musician": 7218,
      "decide": 7219,
      "crayon": 7220,
      "Bicyclist": 7221,
      "Deere": 7222,
      "latex": 7223,
      "graphy": 7224,
      "boulders": 7225,
      "tasks": 7226,
      "knock": 7227,
      "quietly": 7228,
      "slices": 7229,
      "circus": 7230,
      "measure": 7231,
      "gazebo": 7232,
      "supporting": 7233,
      "sausage": 7234,
      "Colle": 7235,
      "rofoam": 7236,
      "Looking": 7237,
      "admire": 7238,
      "surgeons": 7239,
      "consul": 7240,
      "squirted": 7241,
      "glancing": 7242,
      "Patrick": 7243,
      "Passengers": 7244,
      "passerby": 7245,
      "mossy": 7246,
      "pompoms": 7247,
      "mittens": 7248,
      "handicapped": 7249,
      "conditions": 7250,
      "weighing": 7251,
      "populated": 7252,
      "Hello": 7253,
      "eeing": 7254,
      "stainless": 7255,
      "curtains": 7256,
      "KitchenAid": 7257,
      "metropolit": 7258,
      "reporter": 7259,
      "diamond": 7260,
      "presumably": 7261,
      "3rd": 7262,
      "BA": 7263,
      "Ball": 7264,
      "Beach": 7265,
      "Bank": 7266,
      "Cir": 7267,
      "Fla": 7268,
      "Good": 7269,
      "Ju": 7270,
      "Pale": 7271,
      "Ri": 7272,
      "Sky": 7273,
      "Tan": 7274,
      "Tri": 7275,
      "Vic": 7276,
      "Wel": 7277,
      "awe": 7278,
      "bility": 7279,
      "cac": 7280,
      "did": 7281,
      "dreads": 7282,
      "darts": 7283,
      "eer": 7284,
      "east": 7285,
      "glow": 7286,
      "jing": 7287,
      "know": 7288,
      "mow": 7289,
      "mine": 7290,
      "mna": 7291,
      "norm": 7292,
      "pound": 7293,
      "rup": 7294,
      "sin": 7295,
      "uro": 7296,
      "era": 7297,
      "respe": 7298,
      "remove": 7299,
      "returning": 7300,
      "manhole": 7301,
      "stood": 7302,
      "wok": 7303,
      "iser": 7304,
      "law": 7305,
      "ckled": 7306,
      "orth": 7307,
      "ories": 7308,
      "idas": 7309,
      "whist": 7310,
      "boa": 7311,
      "bodies": 7312,
      "ravine": 7313,
      "dome": 7314,
      "roasting": 7315,
      "hoses": 7316,
      "homes": 7317,
      "playful": 7318,
      "hell": 7319,
      "waling": 7320,
      "gran": 7321,
      "adding": 7322,
      "ghthouse": 7323,
      "irline": 7324,
      "blackboard": 7325,
      "rig": 7326,
      "rill": 7327,
      "ricket": 7328,
      "coke": 7329,
      "coca": 7330,
      "force": 7331,
      "lighthouse": 7332,
      "loit": 7333,
      "logi": 7334,
      "lovers": 7335,
      "amed": 7336,
      "needs": 7337,
      "outfield": 7338,
      "mage": 7339,
      "carve": 7340,
      "watery": 7341,
      "wavy": 7342,
      "runway": 7343,
      "bigger": 7344,
      "elly": 7345,
      "simp": 7346,
      "sights": 7347,
      "baza": 7348,
      "renaissance": 7349,
      "snu": 7350,
      "dia": 7351,
      "tuss": 7352,
      "tucked": 7353,
      "snowing": 7354,
      "condo": 7355,
      "angels": 7356,
      "headdresses": 7357,
      "strums": 7358,
      "parlor": 7359,
      "sunbathe": 7360,
      "paneled": 7361,
      "peddling": 7362,
      "cages": 7363,
      "sture": 7364,
      "spr": 7365,
      "spreading": 7366,
      "save": 7367,
      "olate": 7368,
      "tribe": 7369,
      "mingling": 7370,
      "promin": 7371,
      "projects": 7372,
      "problem": 7373,
      "bandage": 7374,
      "speakers": 7375,
      "coral": 7376,
      "windy": 7377,
      "windsurfer": 7378,
      "vivid": 7379,
      "mari": 7380,
      "treats": 7381,
      "marks": 7382,
      "inste": 7383,
      "desolate": 7384,
      "evil": 7385,
      "hurt": 7386,
      "higher": 7387,
      "highly": 7388,
      "sushi": 7389,
      "casion": 7390,
      "interviewing": 7391,
      "turb": 7392,
      "cowgirl": 7393,
      "temporary": 7394,
      "Inter": 7395,
      "velvet": 7396,
      "monopoly": 7397,
      "planks": 7398,
      "psy": 7399,
      "converses": 7400,
      "couches": 7401,
      "cupcake": 7402,
      "taller": 7403,
      "flowering": 7404,
      "breakdances": 7405,
      "concerned": 7406,
      "paintball": 7407,
      "checker": 7408,
      "cliffs": 7409,
      "chained": 7410,
      "clears": 7411,
      "sculptor": 7412,
      "platter": 7413,
      "advertises": 7414,
      "operated": 7415,
      "tuning": 7416,
      "eatery": 7417,
      "waterside": 7418,
      "decker": 7419,
      "halfway": 7420,
      "picked": 7421,
      "cleaned": 7422,
      "donuts": 7423,
      "professionally": 7424,
      "Newly": 7425,
      "wheeling": 7426,
      "puddles": 7427,
      "scooping": 7428,
      "States": 7429,
      "cooling": 7430,
      "gambling": 7431,
      "dumping": 7432,
      "spikes": 7433,
      "hoping": 7434,
      "hadow": 7435,
      "trotting": 7436,
      "troops": 7437,
      "sandwiches": 7438,
      "learn": 7439,
      "prize": 7440,
      "Jockey": 7441,
      "assistance": 7442,
      "croquet": 7443,
      "sparse": 7444,
      "calling": 7445,
      "screams": 7446,
      "Tourist": 7447,
      "clasp": 7448,
      "defend": 7449,
      "waterskier": 7450,
      "vault": 7451,
      "search": 7452,
      "wristband": 7453,
      "mistry": 7454,
      "forklift": 7455,
      "Skier": 7456,
      "arranging": 7457,
      "glacier": 7458,
      "bathed": 7459,
      "spiral": 7460,
      "Artist": 7461,
      "Busy": 7462,
      "horizontally": 7463,
      "weapons": 7464,
      "clerk": 7465,
      "sketch": 7466,
      "sprinting": 7467,
      "squirrel": 7468,
      "skyscraper": 7469,
      "glances": 7470,
      "specimen": 7471,
      "lunges": 7472,
      "route": 7473,
      "situation": 7474,
      "piercings": 7475,
      "providing": 7476,
      "cylinder": 7477,
      "romantic": 7478,
      "technique": 7479,
      "quite": 7480,
      "expanse": 7481,
      "geometric": 7482,
      "2008": 7483,
      "Barefoot": 7484,
      "Gymna": 7485,
      "Vendors": 7486,
      "locomotive": 7487,
      "outcropping": 7488,
      "shrine": 7489,
      "poverty": 7490,
      "satchel": 7491,
      "Renaissance": 7492,
      "drenched": 7493,
      "utensil": 7494,
      "diligently": 7495,
      "machete": 7496,
      "embroid": 7497,
      "College": 7498,
      "metropolitan": 7499,
      "bazaar": 7500,
      "15": 7501,
      "16": 7502,
      "18": 7503,
      "44": 7504,
      "AN": 7505,
      "Bright": 7506,
      "CD": 7507,
      "Cro": 7508,
      "Cent": 7509,
      "Fi": 7510,
      "Free": 7511,
      "Fore": 7512,
      "Gi": 7513,
      "Kitty": 7514,
      "Mor": 7515,
      "Muse": 7516,
      "Navy": 7517,
      "Res": 7518,
      "Sal": 7519,
      "Tar": 7520,
      "Tho": 7521,
      "Tru": 7522,
      "Viet": 7523,
      "Youth": 7524,
      "Yama": 7525,
      "aero": 7526,
      "dum": 7527,
      "god": 7528,
      "govern": 7529,
      "hundreds": 7530,
      "jars": 7531,
      "lled": 7532,
      "mbles": 7533,
      "nd": 7534,
      "ov": 7535,
      "pp": 7536,
      "sou": 7537,
      "tissue": 7538,
      "wants": 7539,
      "york": 7540,
      "rema": 7541,
      "refri": 7542,
      "onlooking": 7543,
      "letting": 7544,
      "atown": 7545,
      "strides": 7546,
      "stew": 7547,
      "alo": 7548,
      "albu": 7549,
      "alumin": 7550,
      "lace": 7551,
      "lable": 7552,
      "enfor": 7553,
      "ornament": 7554,
      "chunk": 7555,
      "idly": 7556,
      "teeter": 7557,
      "dolly": 7558,
      "pean": 7559,
      "romp": 7560,
      "robed": 7561,
      "hoes": 7562,
      "walled": 7563,
      "add": 7564,
      "mex": 7565,
      "rif": 7566,
      "shares": 7567,
      "cos": 7568,
      "herding": 7569,
      "ballgame": 7570,
      "liberty": 7571,
      "lob": 7572,
      "loving": 7573,
      "amic": 7574,
      "necks": 7575,
      "otherwise": 7576,
      "tiara": 7577,
      "poten": 7578,
      "sideline": 7579,
      "figur": 7580,
      "waffle": 7581,
      "achsh": 7582,
      "indic": 7583,
      "greenish": 7584,
      "liter": 7585,
      "trade": 7586,
      "frog": 7587,
      "jackhammer": 7588,
      "hazard": 7589,
      "enters": 7590,
      "hairstyle": 7591,
      "sidewalks": 7592,
      "doorstep": 7593,
      "thatched": 7594,
      "pancakes": 7595,
      "roped": 7596,
      "lingerie": 7597,
      "roadwork": 7598,
      "spider": 7599,
      "prevent": 7600,
      "colour": 7601,
      "chemistry": 7602,
      "joggers": 7603,
      "tanks": 7604,
      "expensive": 7605,
      "capes": 7606,
      "creature": 7607,
      "slice": 7608,
      "flashing": 7609,
      "storefronts": 7610,
      "baggage": 7611,
      "abstract": 7612,
      "skips": 7613,
      "surrounds": 7614,
      "bearer": 7615,
      "rested": 7616,
      "interviews": 7617,
      "turf": 7618,
      "fliers": 7619,
      "iller": 7620,
      "crashes": 7621,
      "breaks": 7622,
      "wns": 7623,
      "medal": 7624,
      "wrong": 7625,
      "batons": 7626,
      "takeout": 7627,
      "photography": 7628,
      "lowered": 7629,
      "tattered": 7630,
      "lence": 7631,
      "cheered": 7632,
      "stylish": 7633,
      "pitches": 7634,
      "observed": 7635,
      "trouble": 7636,
      "troupe": 7637,
      "soldering": 7638,
      "queen": 7639,
      "brave": 7640,
      "pierced": 7641,
      "typewriter": 7642,
      "atively": 7643,
      "bundles": 7644,
      "warmers": 7645,
      "housing": 7646,
      "lonely": 7647,
      "buttoned": 7648,
      "grooms": 7649,
      "keyboards": 7650,
      "entertainer": 7651,
      "fixture": 7652,
      "Coke": 7653,
      "positions": 7654,
      "mustached": 7655,
      "bathrobe": 7656,
      "modeling": 7657,
      "escalators": 7658,
      "Mom": 7659,
      "mobiles": 7660,
      "scoops": 7661,
      "charcoal": 7662,
      "lively": 7663,
      "sizes": 7664,
      "clings": 7665,
      "clinging": 7666,
      "BMW": 7667,
      "weathered": 7668,
      "twisting": 7669,
      "claps": 7670,
      "welve": 7671,
      "fashionable": 7672,
      "pumps": 7673,
      "villagers": 7674,
      "dumps": 7675,
      "sparkly": 7676,
      "patches": 7677,
      "spiky": 7678,
      "peeling": 7679,
      "organizing": 7680,
      "controlled": 7681,
      "ailable": 7682,
      "dustpan": 7683,
      "trots": 7684,
      "occasion": 7685,
      "Love": 7686,
      "everything": 7687,
      "badge": 7688,
      "Joe": 7689,
      "texts": 7690,
      "hippie": 7691,
      "fierce": 7692,
      "mannequins": 7693,
      "wander": 7694,
      "parasail": 7695,
      "ampli": 7696,
      "acrobatics": 7697,
      "mountaine": 7698,
      "maneuvers": 7699,
      "accents": 7700,
      "lovely": 7701,
      "release": 7702,
      "Spider": 7703,
      "marshmall": 7704,
      "lockers": 7705,
      "architect": 7706,
      "foundation": 7707,
      "hunting": 7708,
      "participant": 7709,
      "snorkel": 7710,
      "releasing": 7711,
      "blossoms": 7712,
      "videotaping": 7713,
      "Scouts": 7714,
      "swampy": 7715,
      "affection": 7716,
      "communicating": 7717,
      "anticipation": 7718,
      "sombrero": 7719,
      "Horse": 7720,
      "Angeles": 7721,
      "quartet": 7722,
      "Everyone": 7723,
      "taught": 7724,
      "projection": 7725,
      "sledgehammer": 7726,
      "Yankees": 7727,
      "recipe": 7728,
      "penguin": 7729,
      "breeze": 7730,
      "insect": 7731,
      "research": 7732,
      "aggressive": 7733,
      "japanese": 7734,
      "ninja": 7735,
      "whisper": 7736,
      "somersault": 7737,
      "technology": 7738,
      "plywood": 7739,
      "ulele": 7740,
      "applau": 7741,
      "gingerbread": 7742,
      "crocodile": 7743,
      "Victor": 7744,
      "Welcome": 7745,
      "Museum": 7746,
      "Thomas": 7747,
      "Vietnam": 7748,
      "Yamaha": 7749,
      "dummy": 7750,
      "refriger": 7751,
      "aluminum": 7752,
      "28": 7753,
      "AI": 7754,
      "Bir": 7755,
      "Camer": 7756,
      "Climb": 7757,
      "Dad": 7758,
      "Emer": 7759,
      "Fro": 7760,
      "Ge": 7761,
      "Gard": 7762,
      "Ja": 7763,
      "Ken": 7764,
      "Ly": 7765,
      "Los": 7766,
      "Met": 7767,
      "OR": 7768,
      "Ocean": 7769,
      "Pa": 7770,
      "RO": 7771,
      "RV": 7772,
      "Rad": 7773,
      "SC": 7774,
      "Sitting": 7775,
      "Tu": 7776,
      "Twi": 7777,
      "Tour": 7778,
      "Teach": 7779,
      "aver": 7780,
      "das": 7781,
      "eli": 7782,
      "goose": 7783,
      "hedge": 7784,
      "ik": 7785,
      "jour": 7786,
      "lics": 7787,
      "ome": 7788,
      "poun": 7789,
      "span": 7790,
      "tit": 7791,
      "turing": 7792,
      "vidu": 7793,
      "want": 7794,
      "would": 7795,
      "yal": 7796,
      "yed": 7797,
      "inn": 7798,
      "intimate": 7799,
      "anxi": 7800,
      "rec": 7801,
      "refu": 7802,
      "returns": 7803,
      "hide": 7804,
      "arches": 7805,
      "thed": 7806,
      "already": 7807,
      "ene": 7808,
      "ences": 7809,
      "wipes": 7810,
      "orig": 7811,
      "totter": 7812,
      "areas": 7813,
      "rainst": 7814,
      "ices": 7815,
      "menus": 7816,
      "dober": 7817,
      "holing": 7818,
      "geous": 7819,
      "heat": 7820,
      "heated": 7821,
      "ads": 7822,
      "mean": 7823,
      "youngster": 7824,
      "riff": 7825,
      "forrest": 7826,
      "urin": 7827,
      "taped": 7828,
      "herbs": 7829,
      "soaring": 7830,
      "lians": 7831,
      "streaks": 7832,
      "ardi": 7833,
      "streetlight": 7834,
      "streetlights": 7835,
      "grouped": 7836,
      "smir": 7837,
      "grace": 7838,
      "tili": 7839,
      "times": 7840,
      "pace": 7841,
      "pasta": 7842,
      "carves": 7843,
      "poll": 7844,
      "jugs": 7845,
      "backed": 7846,
      "backflip": 7847,
      "fif": 7848,
      "tled": 7849,
      "rushes": 7850,
      "indi": 7851,
      "indle": 7852,
      "indeer": 7853,
      "cleats": 7854,
      "sibling": 7855,
      "overhang": 7856,
      "distra": 7857,
      "trailing": 7858,
      "frosting": 7859,
      "frolics": 7860,
      "mob": 7861,
      "jewe": 7862,
      "topping": 7863,
      "offer": 7864,
      "closer": 7865,
      "parag": 7866,
      "dees": 7867,
      "caged": 7868,
      "stumed": 7869,
      "anted": 7870,
      "eyel": 7871,
      "spear": 7872,
      "spool": 7873,
      "sphere": 7874,
      "preschool": 7875,
      "darkly": 7876,
      "colon": 7877,
      "sable": 7878,
      "joke": 7879,
      "torso": 7880,
      "compact": 7881,
      "tang": 7882,
      "towing": 7883,
      "author": 7884,
      "lighter": 7885,
      "creme": 7886,
      "session": 7887,
      "shell": 7888,
      "sticker": 7889,
      "related": 7890,
      "drift": 7891,
      "markers": 7892,
      "canes": 7893,
      "duty": 7894,
      "basketballs": 7895,
      "leave": 7896,
      "dispen": 7897,
      "lesson": 7898,
      "backpackers": 7899,
      "shaft": 7900,
      "pointy": 7901,
      "genous": 7902,
      "price": 7903,
      "started": 7904,
      "cracked": 7905,
      "kissed": 7906,
      "median": 7907,
      "potter": 7908,
      "netting": 7909,
      "wrang": 7910,
      "globe": 7911,
      "landmark": 7912,
      "inists": 7913,
      "schoolgirl": 7914,
      "necktie": 7915,
      "hoods": 7916,
      "migr": 7917,
      "drumming": 7918,
      "visitors": 7919,
      "styrofoam": 7920,
      "director": 7921,
      "artifac": 7922,
      "decorate": 7923,
      "zzled": 7924,
      "Individu": 7925,
      "shotgun": 7926,
      "pitchers": 7927,
      "shading": 7928,
      "toned": 7929,
      "burns": 7930,
      "collars": 7931,
      "reflected": 7932,
      "guarded": 7933,
      "include": 7934,
      "collect": 7935,
      "embank": 7936,
      "suspen": 7937,
      "tongues": 7938,
      "bunk": 7939,
      "centric": 7940,
      "donut": 7941,
      "melons": 7942,
      "fingernails": 7943,
      "jamming": 7944,
      "formations": 7945,
      "zement": 7946,
      "Costumed": 7947,
      "rollerskaters": 7948,
      "grinder": 7949,
      "models": 7950,
      "spaghet": 7951,
      "charging": 7952,
      "flexing": 7953,
      "props": 7954,
      "bassist": 7955,
      "Station": 7956,
      "winner": 7957,
      "Home": 7958,
      "Hotel": 7959,
      "Hollywood": 7960,
      "sparkling": 7961,
      "sparkler": 7962,
      "billboards": 7963,
      "amazing": 7964,
      "amazement": 7965,
      "browse": 7966,
      "strokes": 7967,
      "contestant": 7968,
      "screw": 7969,
      "portraits": 7970,
      "autograph": 7971,
      "rearing": 7972,
      "builds": 7973,
      "plugging": 7974,
      "sleepy": 7975,
      "bicycler": 7976,
      "twirls": 7977,
      "wandering": 7978,
      "Britain": 7979,
      "cocktail": 7980,
      "surprise": 7981,
      "Pokemon": 7982,
      "finds": 7983,
      "barricades": 7984,
      "competitively": 7985,
      "ascends": 7986,
      "misty": 7987,
      "bridesmaid": 7988,
      "Spring": 7989,
      "dete": 7990,
      "congregation": 7991,
      "tinted": 7992,
      "Autumn": 7993,
      "questions": 7994,
      "Photograph": 7995,
      "sashes": 7996,
      "folks": 7997,
      "oxen": 7998,
      "navigating": 7999,
      "peppers": 8000,
      "available": 8001,
      "dandelions": 8002,
      "snorkeling": 8003,
      "Union": 8004,
      "refreshing": 8005,
      "safely": 8006,
      "sauce": 8007,
      "barks": 8008,
      "repelling": 8009,
      "Rodeo": 8010,
      "popsicle": 8011,
      "swir": 8012,
      "arrangement": 8013,
      "choreo": 8014,
      "civilian": 8015,
      "continue": 8016,
      "rectangular": 8017,
      "responding": 8018,
      "Berlin": 8019,
      "passionately": 8020,
      "pamphlet": 8021,
      "Vegas": 8022,
      "promoting": 8023,
      "awkwardly": 8024,
      "Batman": 8025,
      "kabobs": 8026,
      "accessories": 8027,
      "occurring": 8028,
      "refreshments": 8029,
      "physical": 8030,
      "warrior": 8031,
      "Clown": 8032,
      "ukulele": 8033,
      "neatly": 8034,
      "applied": 8035,
      "normal": 8036,
      "respective": 8037,
      "turbans": 8038,
      "Gymnast": 8039,
      "Target": 8040,
      "government": 8041,
      "enforcement": 8042,
      "rifles": 8043,
      "lobster": 8044,
      "colourful": 8045,
      "amplifier": 8046,
      "Emergency": 8047,
      "Radio": 8048,
      "rainstorm": 8049,
      "doberman": 8050,
      "embankment": 8051,
      "spaghetti": 8052,
      "14": 8053,
      "33": 8054,
      "70": 8055,
      "Bur": 8056,
      "Bird": 8057,
      "Bron": 8058,
      "Bei": 8059,
      "Cel": 8060,
      "Center": 8061,
      "Emp": 8062,
      "Flor": 8063,
      "Gate": 8064,
      "Har": 8065,
      "Hel": 8066,
      "Ike": 8067,
      "Isl": 8068,
      "Jim": 8069,
      "Kar": 8070,
      "LL": 8071,
      "Lou": 8072,
      "ME": 8073,
      "Offic": 8074,
      "Outs": 8075,
      "Pen": 8076,
      "Power": 8077,
      "Pants": 8078,
      "RE": 8079,
      "Rep": 8080,
      "Sen": 8081,
      "Sam": 8082,
      "Sil": 8083,
      "Tat": 8084,
      "Tall": 8085,
      "Train": 8086,
      "UN": 8087,
      "Villa": 8088,
      "bis": 8089,
      "cad": 8090,
      "chim": 8091,
      "ccess": 8092,
      "ek": 8093,
      "fal": 8094,
      "fare": 8095,
      "fright": 8096,
      "faded": 8097,
      "halloween": 8098,
      "hedges": 8099,
      "mation": 8100,
      "mort": 8101,
      "oy": 8102,
      "ock": 8103,
      "oxy": 8104,
      "prun": 8105,
      "pend": 8106,
      "panda": 8107,
      "swo": 8108,
      "swad": 8109,
      "tch": 8110,
      "infan": 8111,
      "eros": 8112,
      "requ": 8113,
      "regard": 8114,
      "reeds": 8115,
      "removes": 8116,
      "reindeer": 8117,
      "ona": 8118,
      "onion": 8119,
      "onions": 8120,
      "arid": 8121,
      "archa": 8122,
      "stitch": 8123,
      "alter": 8124,
      "alom": 8125,
      "oft": 8126,
      "ordin": 8127,
      "topu": 8128,
      "escor": 8129,
      "chart": 8130,
      "chats": 8131,
      "chande": 8132,
      "oped": 8133,
      "ida": 8134,
      "racks": 8135,
      "peze": 8136,
      "roast": 8137,
      "uncut": 8138,
      "bli": 8139,
      "grilled": 8140,
      "ada": 8141,
      "advan": 8142,
      "meals": 8143,
      "beak": 8144,
      "irly": 8145,
      "rim": 8146,
      "ribs": 8147,
      "shark": 8148,
      "mp3": 8149,
      "semin": 8150,
      "sock": 8151,
      "solu": 8152,
      "bumpy": 8153,
      "locking": 8154,
      "locker": 8155,
      "downwards": 8156,
      "walkie": 8157,
      "magen": 8158,
      "dresser": 8159,
      "fights": 8160,
      "worship": 8161,
      "waking": 8162,
      "rendy": 8163,
      "cris": 8164,
      "trapeze": 8165,
      "boarders": 8166,
      "inker": 8167,
      "scrap": 8168,
      "pist": 8169,
      "ceramic": 8170,
      "basin": 8171,
      "paramed": 8172,
      "talkie": 8173,
      "fathers": 8174,
      "fairly": 8175,
      "cameramen": 8176,
      "parks": 8177,
      "panels": 8178,
      "pedest": 8179,
      "dled": 8180,
      "shocked": 8181,
      "ggan": 8182,
      "cuffs": 8183,
      "joining": 8184,
      "jobs": 8185,
      "footprints": 8186,
      "plowing": 8187,
      "proof": 8188,
      "signals": 8189,
      "days": 8190,
      "barred": 8191,
      "barbed": 8192,
      "sweatsuit": 8193,
      "vista": 8194,
      "vigate": 8195,
      "created": 8196,
      "slump": 8197,
      "flaps": 8198,
      "shells": 8199,
      "treks": 8200,
      "obsc": 8201,
      "navigate": 8202,
      "desper": 8203,
      "article": 8204,
      "seriously": 8205,
      "Somebody": 8206,
      "dded": 8207,
      "interview": 8208,
      "rained": 8209,
      "smokey": 8210,
      "Inside": 8211,
      "planter": 8212,
      "straddling": 8213,
      "beds": 8214,
      "breed": 8215,
      "media": 8216,
      "potty": 8217,
      "steers": 8218,
      "steaks": 8219,
      "steaming": 8220,
      "trails": 8221,
      "autifully": 8222,
      "equipped": 8223,
      "statute": 8224,
      "paddy": 8225,
      "officials": 8226,
      "patron": 8227,
      "animated": 8228,
      "izes": 8229,
      "countertop": 8230,
      "Indians": 8231,
      "turntable": 8232,
      "desktop": 8233,
      "examined": 8234,
      "trink": 8235,
      "diners": 8236,
      "notice": 8237,
      "contor": 8238,
      "hoodies": 8239,
      "golfing": 8240,
      "assign": 8241,
      "assists": 8242,
      "ddles": 8243,
      "candid": 8244,
      "campers": 8245,
      "braces": 8246,
      "tunes": 8247,
      "strawberries": 8248,
      "astride": 8249,
      "flatbed": 8250,
      "Workmen": 8251,
      "pressing": 8252,
      "dropped": 8253,
      "melting": 8254,
      "napkin": 8255,
      "entertained": 8256,
      "shoeless": 8257,
      "exciting": 8258,
      "pinstriped": 8259,
      "fabrics": 8260,
      "designer": 8261,
      "attendees": 8262,
      "trumpets": 8263,
      "scored": 8264,
      "headbands": 8265,
      "propell": 8266,
      "Roman": 8267,
      "wildflowers": 8268,
      "Fest": 8269,
      "coolers": 8270,
      "recorder": 8271,
      "grandson": 8272,
      "Bush": 8273,
      "motions": 8274,
      "strangely": 8275,
      "socialize": 8276,
      "huddles": 8277,
      "joyfully": 8278,
      "badges": 8279,
      "jagged": 8280,
      "pineapples": 8281,
      "assistant": 8282,
      "seaside": 8283,
      "bounding": 8284,
      "graduate": 8285,
      "poorly": 8286,
      "defends": 8287,
      "comforting": 8288,
      "decals": 8289,
      "decides": 8290,
      "yells": 8291,
      "separated": 8292,
      "soapy": 8293,
      "Families": 8294,
      "cycles": 8295,
      "Mexico": 8296,
      "slabs": 8297,
      "launching": 8298,
      "launches": 8299,
      "searches": 8300,
      "intensely": 8301,
      "vacuums": 8302,
      "toilets": 8303,
      "drawer": 8304,
      "guest": 8305,
      "Uniformed": 8306,
      "cropped": 8307,
      "explains": 8308,
      "NYC": 8309,
      "removed": 8310,
      "grasps": 8311,
      "puzzled": 8312,
      "slingshot": 8313,
      "explores": 8314,
      "broadly": 8315,
      "olympic": 8316,
      "Italy": 8317,
      "surveys": 8318,
      "Gras": 8319,
      "Farmers": 8320,
      "Labrad": 8321,
      "grimaces": 8322,
      "solider": 8323,
      "Athle": 8324,
      "Athletes": 8325,
      "pleasant": 8326,
      "Israeli": 8327,
      "Brazil": 8328,
      "ustrated": 8329,
      "lemons": 8330,
      "ornamental": 8331,
      "Christian": 8332,
      "ximately": 8333,
      "leisure": 8334,
      "llama": 8335,
      "yawns": 8336,
      "peacock": 8337,
      "Colorful": 8338,
      "Summer": 8339,
      "investig": 8340,
      "granite": 8341,
      "tussle": 8342,
      "Newlywed": 8343,
      "Central": 8344,
      "origin": 8345,
      "Individuals": 8346,
      "suspension": 8347,
      "Beijing": 8348,
      "Celtic": 8349,
      "Florida": 8350,
      "Ikea": 8351,
      "Island": 8352,
      "Outside": 8353,
      "oxygen": 8354,
      "topus": 8355,
      "chandeli": 8356,
      "seminar": 8357,
      "magenta": 8358,
      "Labrador": 8359,
      "24": 8360,
      "40": 8361,
      "About": 8362,
      "After": 8363,
      "Book": 8364,
      "CA": 8365,
      "Cho": 8366,
      "Class": 8367,
      "Dr": 8368,
      "FC": 8369,
      "Game": 8370,
      "Hall": 8371,
      "House": 8372,
      "Hundreds": 8373,
      "IS": 8374,
      "Isla": 8375,
      "Kay": 8376,
      "Lone": 8377,
      "Mardi": 8378,
      "Nur": 8379,
      "Ore": 8380,
      "PS": 8381,
      "Pink": 8382,
      "Pops": 8383,
      "Sh": 8384,
      "Sy": 8385,
      "Side": 8386,
      "Story": 8387,
      "Tur": 8388,
      "afro": 8389,
      "aoke": 8390,
      "airline": 8391,
      "bing": 8392,
      "banging": 8393,
      "cet": 8394,
      "dging": 8395,
      "dachsh": 8396,
      "gone": 8397,
      "ires": 8398,
      "knight": 8399,
      "nal": 8400,
      "nation": 8401,
      "sop": 8402,
      "swall": 8403,
      "treads": 8404,
      "utili": 8405,
      "vag": 8406,
      "wha": 8407,
      "wint": 8408,
      "ani": 8409,
      "thy": 8410,
      "rescu": 8411,
      "rebound": 8412,
      "rescent": 8413,
      "reunion": 8414,
      "argu": 8415,
      "arrows": 8416,
      "then": 8417,
      "theast": 8418,
      "ati": 8419,
      "stry": 8420,
      "aly": 8421,
      "isley": 8422,
      "lav": 8423,
      "label": 8424,
      "enough": 8425,
      "encoura": 8426,
      "wields": 8427,
      "orous": 8428,
      "tobo": 8429,
      "today": 8430,
      "espress": 8431,
      "choo": 8432,
      "china": 8433,
      "rags": 8434,
      "pectacle": 8435,
      "unt": 8436,
      "unload": 8437,
      "uneven": 8438,
      "bluish": 8439,
      "grate": 8440,
      "adventure": 8441,
      "bees": 8442,
      "beautifully": 8443,
      "blacktop": 8444,
      "rival": 8445,
      "coals": 8446,
      "mphon": 8447,
      "urry": 8448,
      "looms": 8449,
      "ballroom": 8450,
      "fring": 8451,
      "losing": 8452,
      "loves": 8453,
      "bye": 8454,
      "outer": 8455,
      "smash": 8456,
      "grains": 8457,
      "grapher": 8458,
      "tian": 8459,
      "upcoming": 8460,
      "upturned": 8461,
      "brows": 8462,
      "math": 8463,
      "paving": 8464,
      "pages": 8465,
      "pasture": 8466,
      "pokemon": 8467,
      "posable": 8468,
      "fives": 8469,
      "wagen": 8470,
      "inders": 8471,
      "appre": 8472,
      "clen": 8473,
      "sia": 8474,
      "kswagen": 8475,
      "And": 8476,
      "bake": 8477,
      "bathers": 8478,
      "snoo": 8479,
      "overgrown": 8480,
      "onges": 8481,
      "dips": 8482,
      "dipping": 8483,
      "cran": 8484,
      "tus": 8485,
      "tux": 8486,
      "tuce": 8487,
      "conical": 8488,
      "answer": 8489,
      "grasses": 8490,
      "scrubbing": 8491,
      "certi": 8492,
      "Pep": 8493,
      "based": 8494,
      "weiler": 8495,
      "topic": 8496,
      "tablet": 8497,
      "beachfront": 8498,
      "camcor": 8499,
      "parading": 8500,
      "sunrise": 8501,
      "shorter": 8502,
      "defl": 8503,
      "devel": 8504,
      "goth": 8505,
      "ffiti": 8506,
      "flutes": 8507,
      "holder": 8508,
      "studded": 8509,
      "ishing": 8510,
      "sponges": 8511,
      "boom": 8512,
      "horned": 8513,
      "qua": 8514,
      "collap": 8515,
      "cube": 8516,
      "cuddling": 8517,
      "olic": 8518,
      "plum": 8519,
      "signif": 8520,
      "florescent": 8521,
      "barbie": 8522,
      "exting": 8523,
      "exposed": 8524,
      "motorboat": 8525,
      "forearm": 8526,
      "mary": 8527,
      "marine": 8528,
      "creation": 8529,
      "slu": 8530,
      "slanted": 8531,
      "slalom": 8532,
      "flam": 8533,
      "notic": 8534,
      "noise": 8535,
      "dries": 8536,
      "drifting": 8537,
      "hua": 8538,
      "cancer": 8539,
      "bowed": 8540,
      "packs": 8541,
      "success": 8542,
      "disposable": 8543,
      "server": 8544,
      "servers": 8545,
      "facade": 8546,
      "restroom": 8547,
      "international": 8548,
      "tically": 8549,
      "raincoats": 8550,
      "beards": 8551,
      "subject": 8552,
      "lottery": 8553,
      "curls": 8554,
      "pray": 8555,
      "prays": 8556,
      "velers": 8557,
      "famous": 8558,
      "cracker": 8559,
      "venir": 8560,
      "stoops": 8561,
      "isters": 8562,
      "rical": 8563,
      "lettuce": 8564,
      "squirts": 8565,
      "scents": 8566,
      "padding": 8567,
      "patrolling": 8568,
      "emptying": 8569,
      "happiness": 8570,
      "necked": 8571,
      "styles": 8572,
      "bullhorn": 8573,
      "washers": 8574,
      "stral": 8575,
      "lifeguard": 8576,
      "violinists": 8577,
      "conversations": 8578,
      "cedes": 8579,
      "further": 8580,
      "lanyard": 8581,
      "burying": 8582,
      "Domin": 8583,
      "braid": 8584,
      "presented": 8585,
      "attach": 8586,
      "layers": 8587,
      "layup": 8588,
      "operator": 8589,
      "astron": 8590,
      "karaoke": 8591,
      "postal": 8592,
      "syring": 8593,
      "collected": 8594,
      "hurry": 8595,
      "crime": 8596,
      "eyebrows": 8597,
      "pressed": 8598,
      "daughters": 8599,
      "movement": 8600,
      "donning": 8601,
      "approximately": 8602,
      "entertainers": 8603,
      "transaction": 8604,
      "kah": 8605,
      "attends": 8606,
      "waterfalls": 8607,
      "Compet": 8608,
      "folders": 8609,
      "bullet": 8610,
      "scores": 8611,
      "charity": 8612,
      "pullover": 8613,
      "flex": 8614,
      "chopped": 8615,
      "twister": 8616,
      "leafs": 8617,
      "Stitch": 8618,
      "Standing": 8619,
      "vacant": 8620,
      "cookout": 8621,
      "pumping": 8622,
      "freeway": 8623,
      "notebooks": 8624,
      "granddaughter": 8625,
      "Bud": 8626,
      "jets": 8627,
      "jetty": 8628,
      "peek": 8629,
      "troop": 8630,
      "tumbling": 8631,
      "nursing": 8632,
      "octopus": 8633,
      "learns": 8634,
      "mixture": 8635,
      "prizes": 8636,
      "browses": 8637,
      "Martial": 8638,
      "assisted": 8639,
      "crotch": 8640,
      "logos": 8641,
      "bulldog": 8642,
      "fitted": 8643,
      "claw": 8644,
      "clams": 8645,
      "copper": 8646,
      "comforter": 8647,
      "swung": 8648,
      "deciding": 8649,
      "zipper": 8650,
      "splitting": 8651,
      "polishing": 8652,
      "wristbands": 8653,
      "Canada": 8654,
      "seniors": 8655,
      "scientists": 8656,
      "scientific": 8657,
      "SquarePants": 8658,
      "knocked": 8659,
      "attacking": 8660,
      "coastline": 8661,
      "Skiers": 8662,
      "stony": 8663,
      "contemplates": 8664,
      "Cowboys": 8665,
      "Life": 8666,
      "bonnet": 8667,
      "needed": 8668,
      "Parade": 8669,
      "sketching": 8670,
      "dolphins": 8671,
      "released": 8672,
      "Under": 8673,
      "blosso": 8674,
      "Africa": 8675,
      "videotapes": 8676,
      "evergreen": 8677,
      "Graffiti": 8678,
      "bumper": 8679,
      "carpentry": 8680,
      "excavator": 8681,
      "situated": 8682,
      "grimacing": 8683,
      "chores": 8684,
      "hoisted": 8685,
      "civilians": 8686,
      "sombreros": 8687,
      "dealer": 8688,
      "ponchos": 8689,
      "veterans": 8690,
      "documents": 8691,
      "extravag": 8692,
      "dramatic": 8693,
      "pursued": 8694,
      "incense": 8695,
      "manipulating": 8696,
      "composed": 8697,
      "bookshelf": 8698,
      "possessions": 8699,
      "cisco": 8700,
      "source": 8701,
      "recreational": 8702,
      "landscaping": 8703,
      "sprawled": 8704,
      "Circ": 8705,
      "simple": 8706,
      "mariachi": 8707,
      "instead": 8708,
      "utensils": 8709,
      "Rescue": 8710,
      "souvenir": 8711,
      "album": 8712,
      "peanut": 8713,
      "mexican": 8714,
      "potential": 8715,
      "architectural": 8716,
      "Victorian": 8717,
      "Camera": 8718,
      "Twister": 8719,
      "jewelery": 8720,
      "toppings": 8721,
      "paraglid": 8722,
      "artifacts": 8723,
      "detector": 8724,
      "Karate": 8725,
      "Tattoo": 8726,
      "mortar": 8727,
      "infants": 8728,
      "pedestal": 8729,
      "slumped": 8730,
      "desperately": 8731,
      "trinkets": 8732,
      "Islamic": 8733,
      "wintry": 8734,
      "toboggan": 8735,
      "espresso": 8736,
      "pectacled": 8737,
      "mphony": 8738,
      "camcorder": 8739,
      "..": 8740,
      "23": 8741,
      "53": 8742,
      "60": 8743,
      "AD": 8744,
      "Astro": 8745,
      "Bra": 8746,
      "Coun": 8747,
      "Coo": 8748,
      "Cross": 8749,
      "DE": 8750,
      "Da": 8751,
      "EA": 8752,
      "ER": 8753,
      "Ext": 8754,
      "Ethnic": 8755,
      "Fr": 8756,
      "Fac": 8757,
      "Face": 8758,
      "Fran": 8759,
      "HO": 8760,
      "Hero": 8761,
      "Lu": 8762,
      "Med": 8763,
      "Mad": 8764,
      "Mari": 8765,
      "MMA": 8766,
      "Pri": 8767,
      "Rev": 8768,
      "SW": 8769,
      "Sha": 8770,
      "Spain": 8771,
      "Stat": 8772,
      "Tor": 8773,
      "Tech": 8774,
      "UBA": 8775,
      "Vir": 8776,
      "Won": 8777,
      "Wet": 8778,
      "Wars": 8779,
      "aves": 8780,
      "avi": 8781,
      "asts": 8782,
      "aign": 8783,
      "bond": 8784,
      "dlers": 8785,
      "daring": 8786,
      "europe": 8787,
      "gin": 8788,
      "glit": 8789,
      "gang": 8790,
      "jaw": 8791,
      "lung": 8792,
      "mmage": 8793,
      "nut": 8794,
      "sball": 8795,
      "sent": 8796,
      "sped": 8797,
      "sowing": 8798,
      "slight": 8799,
      "spanish": 8800,
      "trendy": 8801,
      "vines": 8802,
      "wins": 8803,
      "wrists": 8804,
      "inver": 8805,
      "informal": 8806,
      "ances": 8807,
      "think": 8808,
      "reas": 8809,
      "reco": 8810,
      "report": 8811,
      "replacing": 8812,
      "regular": 8813,
      "onward": 8814,
      "lego": 8815,
      "lease": 8816,
      "manner": 8817,
      "atic": 8818,
      "straining": 8819,
      "woo": 8820,
      "aler": 8821,
      "isk": 8822,
      "lakes": 8823,
      "cken": 8824,
      "owls": 8825,
      "toen": 8826,
      "toba": 8827,
      "etle": 8828,
      "opport": 8829,
      "ram": 8830,
      "oody": 8831,
      "tell": 8832,
      "sses": 8833,
      "icul": 8834,
      "dozes": 8835,
      "pect": 8836,
      "pews": 8837,
      "royal": 8838,
      "shift": 8839,
      "unpaved": 8840,
      "unwraps": 8841,
      "heel": 8842,
      "grating": 8843,
      "grim": 8844,
      "beats": 8845,
      "bells": 8846,
      "becomes": 8847,
      "vern": 8848,
      "shin": 8849,
      "shred": 8850,
      "coin": 8851,
      "coworker": 8852,
      "mped": 8853,
      "mpoo": 8854,
      "ury": 8855,
      "tass": 8856,
      "tasty": 8857,
      "tasting": 8858,
      "sewer": 8859,
      "airplanes": 8860,
      "livest": 8861,
      "loop": 8862,
      "nest": 8863,
      "tiered": 8864,
      "upstairs": 8865,
      "upraised": 8866,
      "upscale": 8867,
      "brought": 8868,
      "paisley": 8869,
      "carrot": 8870,
      "ache": 8871,
      "ached": 8872,
      "reenact": 8873,
      "sks": 8874,
      "bio": 8875,
      "bili": 8876,
      "renov": 8877,
      "snar": 8878,
      "overflowing": 8879,
      "diator": 8880,
      "tubs": 8881,
      "terrace": 8882,
      "snowshoe": 8883,
      "handsome": 8884,
      "handler": 8885,
      "frolic": 8886,
      "feels": 8887,
      "inky": 8888,
      "mosa": 8889,
      "answers": 8890,
      "scan": 8891,
      "pug": 8892,
      "ionship": 8893,
      "west": 8894,
      "enty": 8895,
      "ctic": 8896,
      "sundown": 8897,
      "sunlit": 8898,
      "sunbathers": 8899,
      "guided": 8900,
      "flung": 8901,
      "grayish": 8902,
      "busily": 8903,
      "midriff": 8904,
      "spl": 8905,
      "spare": 8906,
      "spout": 8907,
      "spreads": 8908,
      "quilted": 8909,
      "chests": 8910,
      "saving": 8911,
      "joking": 8912,
      "sanding": 8913,
      "sandal": 8914,
      "pursuit": 8915,
      "olin": 8916,
      "olution": 8917,
      "compartment": 8918,
      "mermaid": 8919,
      "tried": 8920,
      "triangle": 8921,
      "pless": 8922,
      "mingham": 8923,
      "proces": 8924,
      "signage": 8925,
      "Sea": 8926,
      "windmill": 8927,
      "exposing": 8928,
      "exchanging": 8929,
      "sweats": 8930,
      "crossbones": 8931,
      "via": 8932,
      "typic": 8933,
      "capturing": 8934,
      "creative": 8935,
      "flapping": 8936,
      "ager": 8937,
      "desp": 8938,
      "hugged": 8939,
      "canon": 8940,
      "cannot": 8941,
      "fishnet": 8942,
      "ively": 8943,
      "muff": 8944,
      "mugs": 8945,
      "bespectacled": 8946,
      "sucks": 8947,
      "dingy": 8948,
      "disgu": 8949,
      "cially": 8950,
      "internet": 8951,
      "interacts": 8952,
      "shampoo": 8953,
      "countries": 8954,
      "stered": 8955,
      "subur": 8956,
      "curvy": 8957,
      "volcano": 8958,
      "prison": 8959,
      "cracks": 8960,
      "cradles": 8961,
      "classmates": 8962,
      "flaged": 8963,
      "ived": 8964,
      "fetches": 8965,
      "rised": 8966,
      "graffited": 8967,
      "Challen": 8968,
      "medic": 8969,
      "netted": 8970,
      "protected": 8971,
      "protectors": 8972,
      "refer": 8973,
      "matador": 8974,
      "closest": 8975,
      "flippers": 8976,
      "mulch": 8977,
      "drummers": 8978,
      "presence": 8979,
      "cutout": 8980,
      "stretcher": 8981,
      "sedan": 8982,
      "surfboarder": 8983,
      "pitched": 8984,
      "observers": 8985,
      "clearly": 8986,
      "trough": 8987,
      "hooking": 8988,
      "hooks": 8989,
      "golfers": 8990,
      "fences": 8991,
      "Doctors": 8992,
      "wrapper": 8993,
      "campground": 8994,
      "campaign": 8995,
      "streams": 8996,
      "streaming": 8997,
      "braiding": 8998,
      "gymnasts": 8999,
      "brunet": 9000,
      "reflector": 9001,
      "posted": 9002,
      "postcards": 9003,
      "symphony": 9004,
      "waterskis": 9005,
      "decked": 9006,
      "custom": 9007,
      "hurrying": 9008,
      "deeply": 9009,
      "stories": 9010,
      "farming": 9011,
      "movements": 9012,
      "fanny": 9013,
      "fluid": 9014,
      "rackets": 9015,
      "saxaphone": 9016,
      "saws": 9017,
      "flyer": 9018,
      "keyboardist": 9019,
      "shaping": 9020,
      "bagel": 9021,
      "mopeds": 9022,
      "fixtures": 9023,
      "rollerskate": 9024,
      "peacefully": 9025,
      "yota": 9026,
      "demonstrate": 9027,
      "summit": 9028,
      "Motocross": 9029,
      "billowing": 9030,
      "floatation": 9031,
      "routines": 9032,
      "twilight": 9033,
      "misses": 9034,
      "missed": 9035,
      "parachu": 9036,
      "coaches": 9037,
      "grandfather": 9038,
      "victi": 9039,
      "igloo": 9040,
      "speedboat": 9041,
      "beanbag": 9042,
      "deliver": 9043,
      "delivers": 9044,
      "primit": 9045,
      "amazed": 9046,
      "calmly": 9047,
      "Heavy": 9048,
      "Marching": 9049,
      "assembles": 9050,
      "chessboard": 9051,
      "textile": 9052,
      "Adidas": 9053,
      "boundary": 9054,
      "regalia": 9055,
      "Runner": 9056,
      "clasped": 9057,
      "linked": 9058,
      "brisk": 9059,
      "central": 9060,
      "humans": 9061,
      "swans": 9062,
      "recliner": 9063,
      "consists": 9064,
      "limous": 9065,
      "bicyclers": 9066,
      "parasails": 9067,
      "nuns": 9068,
      "unusually": 9069,
      "bushy": 9070,
      "graphed": 9071,
      "henna": 9072,
      "combing": 9073,
      "sharpening": 9074,
      "martini": 9075,
      "attacked": 9076,
      "flood": 9077,
      "floored": 9078,
      "supports": 9079,
      "cigars": 9080,
      "Skiiers": 9081,
      "roots": 9082,
      "details": 9083,
      "gladiator": 9084,
      "congregated": 9085,
      "arrival": 9086,
      "Arab": 9087,
      "Liberty": 9088,
      "scription": 9089,
      "scrimmage": 9090,
      "saddled": 9091,
      "apparent": 9092,
      "adolescents": 9093,
      "noodle": 9094,
      "Paris": 9095,
      "gorgeous": 9096,
      "desserts": 9097,
      "chipper": 9098,
      "Toyota": 9099,
      "santa": 9100,
      "sanitation": 9101,
      "twins": 9102,
      "twenty": 9103,
      "healthy": 9104,
      "healthcare": 9105,
      "saxophon": 9106,
      "Passersby": 9107,
      "actively": 9108,
      "surveying": 9109,
      "specific": 9110,
      "bordered": 9111,
      "latter": 9112,
      "grips": 9113,
      "gripping": 9114,
      "Gentlemen": 9115,
      "Latino": 9116,
      "drainage": 9117,
      "bustling": 9118,
      "sippy": 9119,
      "muscles": 9120,
      "Airways": 9121,
      "MacBook": 9122,
      "wrecked": 9123,
      "wonderful": 9124,
      "violet": 9125,
      "mouthed": 9126,
      "seasoning": 9127,
      "hours": 9128,
      "challenge": 9129,
      "challenging": 9130,
      "knits": 9131,
      "lemonade": 9132,
      "improvis": 9133,
      "Israel": 9134,
      "ING": 9135,
      "pearl": 9136,
      "dramatically": 9137,
      "eccentric": 9138,
      "zooms": 9139,
      "sequined": 9140,
      "stressed": 9141,
      "execu": 9142,
      "Chefs": 9143,
      "Jeep": 9144,
      "girder": 9145,
      "trekking": 9146,
      "volunteers": 9147,
      "Superman": 9148,
      "Terrier": 9149,
      "faucet": 9150,
      "articles": 9151,
      "Engine": 9152,
      "glee": 9153,
      "manicured": 9154,
      "pharmacy": 9155,
      "rappelling": 9156,
      "Flag": 9157,
      "Skynyrd": 9158,
      "sprint": 9159,
      "checkerboard": 9160,
      "Jockeys": 9161,
      "Crocs": 9162,
      "Foreign": 9163,
      "mountaineer": 9164,
      "whispering": 9165,
      "applauding": 9166,
      "Lynyrd": 9167,
      "SCUBA": 9168,
      "fifth": 9169,
      "distracted": 9170,
      "eyeliner": 9171,
      "colonial": 9172,
      "wrangling": 9173,
      "screwdriver": 9174,
      "Photographers": 9175,
      "choreographed": 9176,
      "Employe": 9177,
      "swaddled": 9178,
      "archaeo": 9179,
      "solution": 9180,
      "pistol": 9181,
      "assignment": 9182,
      "Festival": 9183,
      "Newlyweds": 9184,
      "certific": 9185,
      "extinguish": 9186,
      "astronau": 9187,
      "blossoming": 9188,
      "Circus": 9189,
      "Tattooed": 9190,
      "Extreme": 9191,
      "Francisco": 9192,
      "Revolution": 9193,
      "Wonder": 9194,
      "glittery": 9195,
      "inverted": 9196,
      "opportunity": 9197,
      "livestock": 9198,
      "Challenge": 9199,
      "primitive": 9200,
      "21": 9201,
      "Bill": 9202,
      "Beat": 9203,
      "Cand": 9204,
      "Cru": 9205,
      "Cast": 9206,
      "Cute": 9207,
      "Camp": 9208,
      "DA": 9209,
      "Di": 9210,
      "Du": 9211,
      "Dior": 9212,
      "Dav": 9213,
      "Dressed": 9214,
      "FL": 9215,
      "Fer": 9216,
      "Fat": 9217,
      "Ga": 9218,
      "God": 9219,
      "Gian": 9220,
      "ID": 9221,
      "Iow": 9222,
      "Jets": 9223,
      "Ka": 9224,
[...]
